{
  "vocab": [
    "जनसांख्यिकी",
    "पद",
    "नदिया",
    "२०१५",
    "-03",
    "ग्",
    "ov",
    "जून",
    "तिरुपति",
    "बंगा",
    "द्विती",
    "As",
    "ical",
    "हुए",
    "दौरान",
    "जाता",
    ",000",
    "ien",
    "ग़",
    "oh",
    "एक्",
    "यशवंतपुर",
    "जपा",
    "E﻿",
    "ंड",
    "आयु",
    "उत्त",
    "म्भ",
    "our",
    "ष्ठ",
    "२१",
    "ंबर",
    "विद्या",
    "i,",
    "जैन",
    "भोजपुरी",
    "क्षण",
    "फतेह",
    ".in",
    "भुबनेश्वर",
    "उन",
    "यह",
    "दि",
    "॰ऍ",
    "स्थ",
    "संगीत",
    "क्त",
    "India",
    "ज़िले",
    "टन",
    "कोलकाता",
    "19",
    "2015.",
    "उत्तर",
    "हरिद्वार",
    "परियोजना",
    "अंग",
    "ew",
    "ट",
    "ंध",
    "शेख",
    "ournal",
    "सराय",
    "गे",
    "प्राथमिक",
    "86",
    "गंगो",
    "हैं,",
    "संयुक्त",
    "जनसंख्या",
    "कश्मीर",
    "म्",
    "91",
    "प्रया",
    "आवश्यकता",
    "नागरकोविल",
    "जन्म",
    "शुरू",
    "पुर-",
    "अक्टूबर",
    "मल",
    "ation",
    "अक्तूबर",
    "सन्दर्भ[संपादित",
    "ढूँ",
    "तृतीय",
    "चं",
    "ell",
    "भू",
    "बड़ी",
    "सह",
    "द्वीप",
    "ar",
    "Wor",
    "खास",
    "60",
    "ics",
    "जीवन",
    "J.",
    "ri",
    "णु",
    "uk",
    "विंडो",
    "मंत्रालय",
    "तथा",
    "सीतामढ़ी",
    "लग",
    "भागलपुर",
    "अलंकार",
    "बेट",
    "राजस्थान",
    "जापुर",
    "जबकि",
    "पु",
    "चल",
    "पुरस्कार",
    "आज",
    "राजनीति",
    "ज्ञानकोश",
    "er",
    "ओवर)",
    "म",
    "जोधपुर",
    "अड्डा",
    "em",
    "डु",
    "ख़ा",
    "विंडोज़",
    "रेल",
    "बै",
    "लू",
    "द्",
    "ear",
    "उन्हें",
    "खेड़ा",
    "जीपुर",
    "शो",
    "साहि",
    "जहां",
    "वं",
    "कोलका",
    "बुंदे",
    "लि",
    "ओ",
    "धु",
    "वॉ",
    "पुण",
    "इतिहा",
    "यहाँ",
    "शि",
    "उनके",
    "(अंग्रेज़ी",
    "्",
    "लखनऊ",
    "हम्",
    "रुआ",
    "गै",
    "बाहरी",
    "Ex",
    "अध",
    "ले",
    "लो",
    "ent",
    "सम्बन्ध",
    "सेंट",
    "Y.",
    "(यूटीसी",
    "तमिल",
    "ंत",
    "शर्",
    "25.",
    "लै",
    "ad",
    "कटि",
    "संबद्ध",
    "WB",
    "आवश्यक",
    "अखबार",
    "जीता",
    "चन",
    "ढ़ी",
    "वी",
    "एस",
    "ik",
    "us",
    "वर्तमान",
    "वेब",
    "(M",
    "im",
    "वंश",
    "दिसंबर",
    "नौ",
    ",\"",
    "बेगूसराय",
    "9)",
    "56",
    "ती",
    "कोविल",
    "13",
    "सितंबर",
    "ال",
    "Planet",
    "यु",
    "इन",
    "डो",
    "साहित्य",
    "Gu",
    "लिए",
    "महा",
    "अल्मो",
    "मशी",
    "सं",
    "नाथ",
    "जाती",
    "Hind",
    "चंपारण",
    "oun",
    "क्षेत्र",
    "हो",
    "ंद",
    "विजय",
    "शनल",
    "पुरालेखित",
    "पौ",
    "53",
    "क्ष",
    "Ro",
    "दोनों",
    "सरकार",
    "ऑफ",
    "रि",
    "नागर",
    "भो",
    "संहार",
    "सभी",
    "सद",
    "म्स",
    "श",
    "नाम",
    "यक",
    "मेट्रो",
    "aj",
    "अण्ड",
    "गुरु",
    "2024",
    "आन्ध्र",
    "दर्श",
    "प्रस्तावित",
    "वल",
    "हिन्दी,",
    "उपयुक्त",
    "जैसे",
    "यातायात",
    "गोरखपुर",
    "काकीनाडा",
    "कुम्भ",
    "ड",
    "बंगाल",
    "गूसराय",
    "डा",
    "फास्ट",
    "द्वीपसमूह",
    "ज्",
    "विकेट",
    "पंजाब",
    "गमन",
    "काल",
    "मैच",
    "हिमा",
    "दे",
    "परिच",
    "तिरु",
    "जाते",
    "साथ",
    "कटिहार",
    "Qual",
    "उद्योग",
    "(J",
    "रूप",
    "77",
    "करें",
    "साल",
    "काम",
    "हिंदी",
    "हिन्दू",
    "New",
    "मि",
    "वेश",
    "जलवायु",
    "शिव",
    "गोल",
    "संब",
    "ें",
    "पाठ",
    "बहु",
    "वर्",
    "भारत",
    "था,",
    "नेशनल",
    "लिस",
    "31",
    "World",
    "नीय",
    "उत्पाद",
    "३०",
    "सुपरफास्ट",
    "दू",
    "आई॰ऍस॰बी॰ऍ",
    "र्भ",
    "from",
    "ड़ा",
    "ये",
    "14",
    "घो",
    "ag",
    "ना",
    "दर",
    "चेन्न",
    "झा",
    "माता",
    "कृषि",
    "परिवार",
    "L.",
    "ढूँढें",
    "ब",
    "आई",
    "नाटक",
    "मशीन",
    "प्रस्ता",
    "कल",
    "तिहा",
    "दुनिया",
    "२०१५.",
    "शब्द",
    "छो",
    "सन्दर्भ",
    "सपुर",
    "P.",
    "नग",
    "जापान",
    "कृष",
    "is",
    "गोरख",
    "2023",
    "198",
    "जरा",
    "धन",
    "माल",
    "ला",
    "त्व",
    "मध",
    "छत्ती",
    "झी",
    "ib",
    "ति",
    "लोकसभा",
    "(B",
    "हे",
    "रह",
    "इं",
    "मुरादा",
    "पंचायत",
    "ed",
    "ृ",
    "ि",
    "अव",
    "मंत्रा",
    "जिसे",
    "कांग्रेस",
    "फ़ि",
    "स्वत",
    "शता",
    "रन",
    "विजे",
    "17",
    "°E﻿",
    "फरवरी",
    "लोक",
    "दिन",
    "2003",
    "हीं",
    "शुरुआत",
    "फल",
    "lish",
    "संग्रहालय",
    "उन्होंने",
    "स्व",
    "ढ",
    "ct",
    "सोन",
    "ष्ट्रीय",
    "प्रौद्योगिकी",
    "(एँ",
    "एल",
    "कप",
    "मीटर",
    "वेबसाइट",
    "गई",
    "सो",
    "हटा",
    "पूर्णिया",
    "गु",
    "ंस",
    "पुणे",
    "65",
    "ay",
    "40",
    "आध",
    "सीता",
    "भावना",
    "43",
    "फू",
    "ी",
    "44",
    "a.",
    "शासन",
    "कृ",
    "IC",
    "परि",
    "घाट",
    "सभा",
    "प्रसिद्ध",
    "Un",
    "(जन्म",
    "ce",
    "घु",
    "यो",
    "45",
    "दुर्",
    "ंखला",
    "स्कू",
    "स्थल",
    "एशिया",
    "कॉलेज",
    "प्रभा",
    "भूकम्प",
    "ज्ञ",
    "pp",
    "ज़",
    "अच्छ",
    "जा",
    "कला",
    "करना",
    "ं",
    "समाचार",
    "आन्ध्रप्रदेश",
    "नगला",
    "मन",
    "रण",
    "फ़ा",
    "कृपया",
    "चा",
    "जम्मू",
    "(PDF",
    "विधान",
    "Sc",
    "ity",
    "लाल",
    "कोड",
    "वर्ण",
    "गोवि",
    "लाम",
    "जिले",
    "with",
    "कौ",
    "हा",
    "पैसेंजर",
    "डेटा",
    "पन",
    "ली,",
    "जय",
    "रानीखेत",
    "फी",
    "मर",
    "ऋ",
    "नर",
    "स्थापना",
    "बिहार",
    "ओडि",
    "युद्ध",
    "शाली",
    "फिल्",
    "परिष",
    "रॉ",
    ").",
    "श्",
    "च्च",
    "दी",
    "ैल",
    "उत्तरकाशी",
    "मदाबाद",
    "्स",
    "विद्",
    "टू",
    "द्दा",
    "गढ़",
    "गत",
    "ते",
    "लेज",
    "49",
    "ers",
    "iz",
    "गां",
    "फ़िल्",
    "तिवारी",
    "Ch",
    "अनु",
    "ौ",
    "धपुर",
    "ढूँढ",
    "at",
    "ंडो",
    "ढ़ा",
    "अल्मोड़ा",
    "Is",
    "ment",
    "निर्वाचन",
    "क",
    "up",
    "Techn",
    "सिंह",
    "ड़ियाँ",
    "2021",
    "(PD",
    "बु",
    "अड",
    "Th",
    "देवासंभारत",
    "सबसे",
    "of",
    "पार्टी",
    "ंश",
    "सुधार",
    "मस्",
    "स्थापित",
    "घा",
    "ood",
    "गण",
    "Arch",
    "न्न",
    "भूमि",
    "ual",
    "(19",
    "ूर",
    "सागर",
    "लगभग",
    "अनेक",
    "जि",
    "इंग्लैंड",
    "ण्डल",
    "योग",
    "27.",
    "खोजें:",
    "Cric",
    "खु",
    "दिल्ली",
    "बेह",
    "नाडा",
    "जन",
    "pp.",
    "ass",
    "ॉर्",
    "शताब्",
    "अथ",
    "रत",
    "ड़ते",
    "कम्प",
    "Re",
    "कड़ियाँ",
    "और",
    "Process",
    "त्मक",
    "ल्तानपुर",
    "जम्",
    "Com",
    ".com.",
    "ची",
    "व",
    "५:",
    "है,",
    "30",
    "पुनर्",
    "देहरादून",
    "Press",
    "साइट",
    "नदियाँ",
    "कर",
    "आइ",
    "प्त",
    "50",
    "an",
    "फो",
    "इया",
    "कक्ष",
    "णी",
    "गी",
    "क्स",
    "हुई",
    "बांग्",
    "फ़िल्म",
    "गुणा",
    "तृती",
    "वृ",
    "हु",
    "न्याया",
    "2017)",
    "माँ",
    "Air",
    "दपुर",
    "जपुर",
    "भाजपा",
    "55",
    "ate",
    "ow",
    "ww",
    "नाग",
    "201",
    "चे",
    "utt",
    "पर",
    "किम",
    "निर्देशांक:",
    "को",
    "केरल",
    "माइ",
    "प्रौ",
    "कु",
    "गंज",
    "मपुर",
    "%)",
    "ism",
    "द्वार",
    "August",
    "सिद्ध",
    "ंबई",
    "फतेहपुर",
    "u,",
    "ies",
    "मत",
    "स्रोत",
    "12",
    "जल",
    "tern",
    "स्वा",
    "पति",
    "मुक्त",
    "वायु",
    "9.",
    "न्",
    "डेल्",
    "मुख",
    "लैंड",
    "बि",
    "कुमाऊँ",
    "िया",
    "ep",
    "नंद",
    "ृत",
    "िक",
    "यश",
    "क्षि",
    "झ",
    "आगरा",
    "प्रथम",
    "लिये",
    "age",
    "ing,",
    "देखें[संपादित",
    "सी",
    "हि",
    "हवाई-",
    "मैन",
    "निर्देशांक",
    "पुदु",
    "जालस्थ",
    "जयपुर",
    "खो",
    "ख़",
    "उत्",
    "टे",
    "बन",
    "शताब्दी",
    "नगर",
    "ज़िला",
    "नन्द",
    "10.",
    "विशेष",
    "टि",
    "2020",
    "दु",
    "रा",
    "शीर्ष",
    "स्वी",
    "२०",
    "इन्हें",
    "़",
    "चुना",
    "अथवा",
    "भाषा(एँ)",
    "ताल",
    "प्रमुख",
    "ष",
    "गम",
    "नै",
    "औ",
    "रखा",
    "--",
    "समूह",
    "लाइन",
    "मु",
    "(यूटीसी+",
    "चुनाव",
    "2011)",
    "ङ",
    "भग",
    "सम्ब",
    "वल्लभ",
    "प्",
    "ion",
    "Sun,",
    "29",
    "2020.",
    "समय",
    "फ़र",
    "भूगोल",
    "ine",
    "जर",
    "48",
    "63",
    "राज",
    "बड़ा",
    "पूर्व",
    "सेना",
    "राज्यपाल",
    "11",
    "th",
    "बी",
    "आधुनिक",
    "पुदुच्चे",
    "अभि",
    "ाद",
    "डीह",
    "मणि",
    "ठा",
    "म,",
    "सफल",
    "De",
    "Lon",
    "होंने",
    "37",
    "ौन",
    "गढ़वाल",
    "यशवंत",
    "हरियाणा",
    "कॉर्बेट",
    "डेल्ही",
    "नैनी",
    "र",
    "सिक्किम",
    "दक्षि",
    "ah",
    "मुजफ्फरपुर",
    "ः",
    "38",
    "तक",
    "मस्जिद",
    "टर्मिन",
    "(यूटीसी+5:",
    "तेह",
    "रु",
    "उत्तरा",
    "जीव",
    "सत",
    "ण्",
    "लन",
    "विज्ञान",
    "भाई",
    "धार",
    "होते",
    "तीन",
    "पाल",
    "all",
    "चौ",
    "ue",
    "ंभ",
    "प्रवेश",
    "हैदरा",
    "ो",
    "पट",
    "ित",
    "उसे",
    "इंदौर",
    "se",
    "ह्",
    "काशी",
    "ष्ट",
    "अंग्रेजी",
    "भु",
    "यम",
    "वो",
    "SA",
    "री",
    "विश्वविद्यालय",
    "...",
    "जिन",
    "ak",
    "41",
    "असम",
    "कि",
    "बेल",
    "ind",
    "अमृत",
    "हॉ",
    "Plan",
    "जी",
    "भाग",
    "पौराणिक",
    "राष्ट्रीय",
    "re",
    "पिथ",
    "For",
    "जे",
    "Mar",
    "ort",
    "Airport",
    "इस",
    "नारायण",
    "nal",
    "पक",
    "संख्या",
    "्ड",
    "पे",
    "1.",
    "टर",
    "वत",
    "Me",
    "88",
    "ख्या",
    "पुरालेखित.",
    "प्रकाशित",
    "रंग",
    "22",
    "WA",
    "अह",
    "पी",
    "36",
    "रपुर",
    "वाह",
    "शारदा",
    "(अंग्रेज़ी)",
    "24",
    "ook",
    "क्",
    "-सम्बन्धी",
    "उप",
    "पाकिस्तान",
    "करने",
    "भे",
    "December",
    "पदक",
    "धी",
    "op",
    "-02",
    "con",
    "मंड",
    "१९",
    "):",
    "टा",
    "कनाडा",
    "घर",
    "STO",
    "पहले",
    "al",
    "ज",
    "(एँ)",
    "ोर",
    "मुंबई",
    "निर्मा",
    "एक्स्",
    "कुमाऊँनी",
    "द्दी",
    "कॉ",
    "सर",
    "(JSTO",
    "भिन्न",
    "सौ",
    "ई",
    "महल",
    "46",
    "मदद",
    "इससे",
    "र्",
    "प्रयाग",
    "तो",
    "ot",
    "ठन",
    "कहते",
    "com",
    "ब्",
    "इंजीनि",
    "पश्चि",
    "पि",
    "मध्य",
    "नाई",
    "978",
    "igh",
    "प्राप्त",
    "(यू",
    "ंब",
    "शे",
    "दिसम्बर",
    "टीवी",
    "sh",
    "उर्",
    "Con",
    "ol",
    "आन्ध",
    "ड़िया",
    "एफ",
    "फु",
    "े",
    "ठ",
    "किया,",
    "झारखण्ड",
    "वाँ",
    "-0",
    "लक्षद्वीप",
    "WI",
    "स्कूल",
    "बांद्रा",
    "अहमदाबाद",
    "टो",
    "in",
    "15",
    "ld",
    "जनवरी",
    "52",
    "भाषाएँ",
    "खुर्द",
    "मढ़ी",
    "ै",
    "गोवा",
    "WR",
    "72",
    "संपाद",
    "बा",
    "a)",
    "छत्तीस",
    "पश्",
    "में,",
    "पं",
    "टूर्नामेंट",
    "वै",
    "किसी",
    "बढ़ाने",
    "दत्त",
    "मुंगेर",
    "लेख",
    "त",
    "धर्म",
    "Da-Wen",
    "जालस्थल:",
    "Zheng",
    "अंग्रेज़ी",
    "फ़",
    "-१",
    "२००",
    "सितम्बर",
    "95",
    "अतिरिक्त",
    "भुबने",
    "लॉ",
    "विध",
    "वार्ता",
    "जर्",
    "पहली",
    "सु",
    "बेहतर",
    "om",
    "शून्य",
    "अगस्त",
    "जिसके",
    "ऐ",
    "न,",
    "200",
    "90",
    "यन",
    "ल्स",
    "किताबें",
    "छ",
    "In",
    "सन्द",
    "Da",
    "en",
    "देवा",
    "अभिनेता",
    "2016.",
    "um",
    "न्त",
    "परिषदनगर",
    "स्वामी",
    "2009",
    "ंगलौर",
    "गांव",
    "ur",
    "ड़ी",
    "के",
    "35",
    "संस्",
    "80",
    "(T",
    "79",
    "वाहा",
    "बना",
    "काकी",
    "97",
    "ली",
    "मै",
    "ro",
    "चु",
    "मीर",
    "नपुर",
    "प्रकाश",
    "सि",
    "बह",
    "आंध",
    "थु",
    "बाजी",
    "ff",
    "विस्त",
    "अलावा",
    "ओडिशा",
    "कह",
    "चीन",
    "El",
    "ण",
    "जिला",
    "षय",
    "अक्तू",
    "कम",
    "चि",
    "भि",
    "ry",
    "ark",
    "as",
    "ational",
    "ember",
    "59",
    "जिसमें",
    "से",
    "कुछ",
    "एँ",
    "समाज",
    "ary",
    "पास",
    "ug",
    "ड़े",
    "३०)",
    "या",
    "ओवर",
    "स्",
    "रेलवे",
    "प्राचीन",
    "o,",
    "अज",
    "ction",
    "यी",
    "गो",
    "गुजरात",
    "एक",
    "तेल",
    "(2006)",
    "एक्सप्रेस",
    "San",
    "टीम",
    "मई",
    "नी",
    "ण्डव",
    "विभिन्न",
    "यहां",
    "ang",
    "].",
    "तिलक",
    "पर्वत",
    "ल्",
    "दल",
    "प्रखण्ड",
    "तुहा",
    "बागेश्वर",
    "फिल्म",
    "gov",
    "अन्य",
    "ISBN",
    "पिथौरा",
    "कश्",
    "Tim",
    "2022",
    "वु",
    "देवासं",
    "मे",
    "निगम",
    "शब्",
    "शी",
    "आन्दो",
    "अब",
    "दिखा",
    "ड़",
    "पृष्ठ",
    "वरी",
    "26",
    "Aug",
    "खर",
    "छपरा",
    "पर्यटन",
    "34",
    "बू",
    "°N",
    "पुत्र",
    "आव",
    "शा",
    "मार्च",
    "मग",
    "है",
    "फा",
    "विद्यालय",
    "बर",
    "तर",
    "A.",
    "यात",
    "मंत्री",
    "लक",
    "य",
    "ch",
    "वर",
    "व्य",
    "ल:",
    "(जनवरी",
    "ac",
    "अप",
    "केवल",
    "The",
    "बहुत",
    "तम",
    "ा",
    "ू",
    "अंग्रे",
    "28",
    "याँ",
    "पृ",
    "ish",
    "ढ़",
    "ूँ",
    "बनाया",
    "Im",
    "मण्डल",
    "ir",
    "उर्फ",
    "sembly",
    "ून",
    "ग",
    "वर्ग",
    "ता",
    "प्रति",
    "74",
    "डीओ",
    "बीकाने",
    "निम्",
    "मगध",
    "ों",
    "मंडल:",
    "am",
    "साम्राज्य",
    "खे",
    "पैसेंज",
    "96",
    "संबंध",
    "फै",
    "प्रदान",
    "२०१",
    "वेबैक",
    "रल",
    "मो",
    "ication",
    "St",
    "विषय",
    "ौला",
    "निकोबार",
    "esh",
    "Sun",
    "क्रिकेट",
    "पेशा",
    "od",
    "टक",
    "y,",
    "हेतु",
    "भौ",
    "दानापुर",
    "ृंखला",
    "हुआ",
    "स्को",
    "सम",
    "अधिक",
    "बहुगुणा",
    "षण",
    "बीच",
    "उल्लेखनीयता",
    "लोग",
    "बत",
    "ge",
    "ऊ",
    "आईसी",
    "शक्ति",
    "राम",
    "खि",
    "वह",
    "संघ",
    "सैन",
    "उच्च",
    "id",
    "धर्",
    "जग",
    "बंगलौर",
    "छा",
    "स्कोर",
    "सिकंदराबाद",
    "थे",
    "ai",
    "ic",
    "3.",
    "पत",
    "तहसी",
    "आई॰ऍ",
    "खिला",
    "खी",
    "March",
    "गुवाहाटी",
    "पहाड़ी",
    "खगड़िया",
    "ng",
    "टाइ",
    "घ",
    "National",
    "(JSTOR)",
    "ंट",
    "अयो",
    "विधायक",
    "शीर्",
    "पुर",
    "इल",
    "उनका",
    "ट्स",
    "94",
    "बे",
    "16",
    "वर्त",
    "ok",
    "ap",
    "33",
    "मी",
    "pl",
    "वाई",
    "परिषद",
    "कोई",
    "ंगल",
    "ख्",
    "ket",
    "it",
    "अ",
    "दय",
    "अरुणा",
    "मुंगे",
    "oo",
    "पा",
    "-२",
    "आई॰ऍस॰बी॰ऍन",
    "फ",
    "चेन्नई",
    "उपज़िला",
    "आंध्र",
    "सम्बन्धी",
    "रवि",
    "पिथौरागढ़",
    "Pl",
    "Al",
    "तीर्",
    "न्द",
    "सिटी",
    "शन",
    "दक्षिण",
    "गड़िया",
    "(मदद)",
    "नैनीताल",
    "बढ़",
    "अर्थ",
    "प्र",
    "ए-",
    "Pradesh",
    "कुंड",
    "श्व",
    "जो",
    "वा",
    "-W",
    "गंगा",
    "गा",
    "गल",
    "(यूटीसी+5:30)",
    "तिहासिक",
    "शेष",
    "चम्",
    "Univers",
    "\"P",
    "Archived",
    "उद्धरण",
    "धर",
    "था",
    "जू",
    "Comp",
    "तह",
    "लपुर",
    "भी",
    "to",
    "शाह",
    "10",
    "संस्कृ",
    "93",
    ".0",
    "Ind",
    "पृ॰",
    "dh",
    "खंड",
    "हवाई",
    "बीघा",
    "उस",
    "ँव",
    "बख्",
    "लय",
    "गुरुकुल",
    "राजमार्ग",
    "नेट",
    "स्त",
    "योजना",
    "ult",
    "देशांक",
    "ससे",
    "-ए-",
    "जै",
    "cl",
    "ia",
    "chn",
    "जानकारी",
    "आई॰ऍस॰बी",
    "International",
    "ष्",
    "(मदद",
    "नन्दन",
    "मथु",
    "पू",
    "धि",
    "भर",
    "70",
    "व्यव",
    "रावत",
    "प्रका",
    "अम",
    "सू",
    "ev",
    "(PDF).",
    "ड़की",
    "So",
    "ध",
    "होता",
    "आधिकारिक",
    "अपने",
    "डॉ",
    "आयो",
    "टी",
    "\".",
    "काण्ड",
    "थी",
    "प्रदेश",
    "प्रयागराज",
    "जाति",
    "अप्रैल",
    "199",
    "शहर",
    "पात",
    "तिथि",
    "नयी",
    "राजधानी",
    "वाल",
    "लख",
    "देश",
    "दरभंगा",
    "नरसंहार",
    "21",
    "सब",
    "सिं",
    "महिला",
    "el",
    "ज़ा",
    "st",
    "प्रेस",
    "os",
    "चम्पा",
    "राय",
    "aw",
    "सिर",
    "ह",
    "भाषा",
    "हाव",
    "गोविन्द",
    "वाराण",
    "(200",
    "196",
    "Intern",
    "मद",
    "R)",
    "),",
    "क्रम",
    "च्छ",
    "87",
    "66",
    "त्रिवेंद्र",
    "गौ",
    ".gov.in",
    ".com",
    "त्त",
    "मथुरा",
    "सदस्य",
    "ऊँ",
    "78",
    "(यूटीसी+५:३०)",
    "गोदा",
    "ही",
    "नहीं",
    "टीसी",
    "(2011)",
    "Jan",
    "न्ध",
    "मा",
    "″N",
    "शुरुआ",
    "च",
    "विद्वान",
    "रू",
    "2007",
    "की",
    "अभिगमन",
    "मुजफ्",
    "ढूँढें)",
    "सक",
    "आदि",
    "प्रवेशद्वार",
    "छोटा",
    "जोड़कर",
    "54",
    "बड़े",
    "बस",
    "स",
    "ँ",
    "वि",
    "एरनाकुलम",
    "साहिब",
    "18",
    "′N",
    "हिन्दी,संस्कृत",
    "मक",
    "थि",
    "वाराणसी",
    "होने",
    "ु",
    "एवं",
    "एं",
    "स्टेशन",
    "खोजें",
    "च्",
    "BN",
    "प्रदर्",
    "हावड़ा",
    "डे",
    "विकिपीडिया",
    "ing",
    ",00",
    "प्रामाणिक",
    "ive",
    "उद्यान",
    "Lonely",
    "डि",
    "une",
    "port",
    "ने",
    "राष्ट्रपति",
    "ऐतिहासिक",
    "टै",
    "नंदा",
    "चमो",
    "oc",
    "कै",
    "for",
    "टर्मिनस",
    "आदर्श",
    "Eng",
    "es",
    "सै",
    "ES",
    "अति",
    "तहसील",
    "दरभ",
    "म्ब",
    "भोज",
    "इड",
    "by",
    "फि",
    "(निर्देशांक",
    "शैली",
    "अनुसार",
    "हेम",
    "Am",
    "अक्टू",
    "संर",
    "विस्तृत",
    "मंडल",
    "मोहम्",
    "द्दीनपुर",
    "थम",
    "and",
    "क्ल",
    "वर्ष",
    "27",
    "कं",
    "Zh",
    "परिणा",
    "लेकिन",
    "कृप",
    "51",
    "मंदि",
    "करें]",
    "Sh",
    "av",
    "उदय",
    "संगठन",
    "द्ध",
    "पीडिया",
    "करण",
    "एम",
    "का",
    "नु",
    "गि",
    "यल",
    "ओं",
    "सकता",
    "उल्लेख",
    "्र",
    "शरी",
    "क़",
    "बाद,",
    "Food",
    "पाकि",
    "06",
    "हिमाचल",
    "गुवाहा",
    "तुर्",
    "चक",
    "लु",
    "सामग्री",
    "प",
    "ut",
    "गू",
    "हैं",
    "de",
    "द",
    "स,",
    "C.",
    "मेर",
    "2014.",
    "संपादित",
    "राजधानी:",
    "गाँव",
    "if",
    "30)",
    "राजवंश",
    "ान",
    "′E﻿",
    "art",
    "अयोध्या",
    "क,",
    "पाद",
    "भारतीय",
    "ob",
    "१०",
    "दश",
    "प्रशासनिक",
    "एसटी",
    "Da-W",
    "इ",
    "मुन",
    "ul",
    "ज़ोर",
    "निर्देशक",
    "or",
    "73",
    "uary",
    "20",
    "″E﻿",
    "में).",
    "पुरुष",
    "मुख्य",
    "जुड़ते",
    "..",
    "ब्रिटिश",
    "कुर",
    "इंटरसिटी",
    "म्बर",
    "अंतर",
    "कूट",
    "अन",
    "दास",
    "जिद",
    "ip",
    "आई॰ऍस॰",
    "ध्",
    "हता",
    "अकादमी",
    "परिचय",
    "यमुना",
    "s,",
    "लैण्ड",
    "a,",
    "पुरालेख",
    "इट",
    "ल",
    ".gov",
    "75",
    "निजा",
    "लीग",
    "गोस्वामी",
    "सीमा",
    "डी",
    "फर",
    "जीत",
    "धाम",
    "त्रिवेंद्रम",
    "गए",
    "विभाग",
    "सेवा",
    "छत्तीसगढ़",
    "उत्तराखण्ड",
    "ank",
    "आईएसटी",
    "आर",
    "अवध",
    "कर्नाटक",
    "et",
    "तु",
    "बाग",
    "ect",
    "गया",
    "ज़ी",
    "नऊ",
    "जु",
    "ज्ञान",
    "00",
    "दा",
    "2.",
    "पुदुच्चेरी",
    "77.",
    "ौली",
    "फ्",
    "olog",
    "पो",
    "पल",
    "जब",
    "वे",
    "सा",
    "मुज",
    "मुरादाबाद",
    "चर्चा",
    "IS",
    "इंटर",
    "पोर्टल",
    "रसू",
    "मह",
    "कड़ियाँ[संपादित",
    "विजेता",
    "उल्",
    "le",
    "Ap",
    "यर",
    "सूचना",
    "लाह",
    "शामिल",
    "अख",
    "उ",
    "निर्वा",
    "25",
    "हवेली",
    "राज्य",
    "अन्तर्गत",
    "यस",
    "जुलाई",
    "पूर्",
    "ंग",
    "मंदिर",
    "ंक",
    "32",
    "Te",
    "ill",
    "पुरस्",
    "[संपादित",
    "कई",
    "प्रशा",
    "देव",
    "यदि",
    "ट्",
    "'s",
    "47",
    "सकते",
    "कांग",
    "१५",
    "चम्पावत",
    "23",
    "76",
    "विश्व",
    "फे",
    "अक्",
    "हाला",
    "टिश",
    "il",
    "ard",
    "गर",
    "मणिपुर",
    "विधानसभा",
    "युक्त",
    "अरब",
    "खेत",
    "कोश",
    "मेल",
    "औरंगाबाद",
    "the",
    "दो",
    "स्ट",
    "किन",
    "जालपृष्ठ",
    "्रीय",
    "बल",
    "फिर",
    "1-",
    "्य",
    "पौड़ी",
    "टल",
    "ter",
    "निर्माण",
    "खण्ड",
    "निर्",
    "ओर",
    "महत्व",
    "सां",
    "पूर्ण",
    "अकाद",
    "थ",
    "बाँ",
    "au",
    "जिसका",
    "मॉ",
    "57",
    "षा",
    "राष्ट्र",
    "Ar",
    "(यूटीसी+५:",
    "भूभाग",
    "ेस",
    "ier",
    "हर",
    "लम",
    "ंच",
    "यत",
    "लद्दा",
    "एक्स्प्रेस",
    "नव",
    "यू",
    "42",
    "WM",
    "में",
    "घटना",
    "तब",
    "णा",
    "2019.",
    "बो",
    "लिंक",
    "विल",
    "58",
    "अमृतसर",
    "ra",
    "ऋष",
    "चै",
    "फ़रवरी",
    "चर्",
    "पॉ",
    "अग",
    "ee",
    "खने",
    "लाव",
    "विकास",
    "देखें",
    "सोनपुर",
    "सांख्यिकी",
    "अर",
    "ध्या",
    "जहा",
    "भा",
    "eb",
    "ess",
    "हिन्दी",
    "बांग्लादेश",
    "दृ",
    "प्रांत",
    "एर",
    "ठी",
    "अल",
    "क्षे",
    "मार्ग",
    "द्वारा",
    "रै",
    "नदी",
    "ंख",
    "थो",
    "कुमा",
    "जाल",
    "पै",
    "हल्",
    "केदार",
    "°0",
    "नेता",
    "आ",
    "आई॰ऍस॰बी॰ऍन॰",
    "(S",
    "णिक",
    "गाँव-सम्बन्धी",
    "इतिहास",
    "सम्बन्धित",
    "Engine",
    "एन",
    "मेघा",
    "कोट",
    "उनकी",
    "emb",
    "बॉ",
    "तन",
    "ud",
    "अजमेर",
    "ly",
    "85",
    "वेली",
    "मिन",
    "ub",
    "2018.",
    "Archiv",
    "र,",
    "शाखा",
    "पट्टी",
    "स॰",
    "त्",
    "eg",
    "ंज",
    "ig",
    "नाडु",
    "सन",
    "नल",
    "लाई",
    "ञ",
    "ट्ट",
    "र्द",
    "मिल",
    "डेटाबेस",
    "उपयोग",
    "1,",
    "ज़ि",
    "रो",
    "आम",
    "प्रयोग",
    "मू",
    "शु",
    "कू",
    "बीकानेर",
    "संस्करण",
    "नि",
    "98",
    "ack",
    "धा",
    "2008",
    "पश्चिम",
    "पह",
    "जामा",
    "Journal",
    "रे",
    "iv",
    "ab",
    "मण",
    "ौल",
    "मोती",
    "ल्ला",
    "मेघालय",
    "वन",
    "श्रेणी",
    "पेट्रो",
    "अंतर्राष्ट्रीय",
    "लासपुर",
    "ist",
    "लभ",
    "(P",
    "चमोली",
    "an,",
    "नो",
    "जनता",
    "ॉन",
    "आन्दोलन",
    "ublish",
    "5:",
    "un",
    "नई",
    "रुड़की",
    "www",
    "जोड़",
    "लर",
    "og",
    "www.",
    "An",
    "ए",
    "तौर",
    "अरुणाचल",
    "होती",
    "तेलंगाना",
    "खा",
    "स्रोतहीन",
    "सिस्ट",
    "ार",
    "वीप",
    "हैदराबाद",
    "on",
    "गुजरा",
    "ण्ड",
    "ल्ली",
    "मूल",
    "कुल",
    "मौ",
    "विश्वसनीय",
    "सुपर",
    "ST",
    "करता",
    "भ",
    "सूची",
    "वीं",
    "ant",
    "न",
    "नृत्य",
    "सामान्य",
    "ौर",
    "ख",
    "कोड:"
  ],
  "learned_vocab": [
    "जनसांख्यिकी",
    "पद",
    "नदिया",
    "२०१५",
    "-03",
    "ग्",
    "ov",
    "जून",
    "तिरुपति",
    "बंगा",
    "द्विती",
    "As",
    "ical",
    "हुए",
    "दौरान",
    "जाता",
    ",000",
    "ien",
    "ग़",
    "oh",
    "एक्",
    "यशवंतपुर",
    "जपा",
    "E﻿",
    "ंड",
    "आयु",
    "उत्त",
    "म्भ",
    "our",
    "ष्ठ",
    "२१",
    "ंबर",
    "विद्या",
    "i,",
    "जैन",
    "भोजपुरी",
    "क्षण",
    "फतेह",
    ".in",
    "भुबनेश्वर",
    "उन",
    "यह",
    "दि",
    "॰ऍ",
    "स्थ",
    "संगीत",
    "क्त",
    "India",
    "ज़िले",
    "टन",
    "कोलकाता",
    "19",
    "2015.",
    "उत्तर",
    "हरिद्वार",
    "परियोजना",
    "अंग",
    "ew",
    "ंध",
    "शेख",
    "ournal",
    "सराय",
    "गे",
    "प्राथमिक",
    "86",
    "गंगो",
    "हैं,",
    "संयुक्त",
    "जनसंख्या",
    "कश्मीर",
    "म्",
    "91",
    "प्रया",
    "आवश्यकता",
    "नागरकोविल",
    "जन्म",
    "शुरू",
    "पुर-",
    "अक्टूबर",
    "मल",
    "ation",
    "अक्तूबर",
    "सन्दर्भ[संपादित",
    "ढूँ",
    "तृतीय",
    "चं",
    "ell",
    "भू",
    "बड़ी",
    "सह",
    "द्वीप",
    "ar",
    "Wor",
    "खास",
    "60",
    "ics",
    "जीवन",
    "J.",
    "ri",
    "णु",
    "uk",
    "विंडो",
    "मंत्रालय",
    "तथा",
    "सीतामढ़ी",
    "लग",
    "भागलपुर",
    "अलंकार",
    "बेट",
    "राजस्थान",
    "जापुर",
    "जबकि",
    "पु",
    "चल",
    "पुरस्कार",
    "आज",
    "राजनीति",
    "ज्ञानकोश",
    "er",
    "ओवर)",
    "जोधपुर",
    "अड्डा",
    "em",
    "डु",
    "ख़ा",
    "विंडोज़",
    "रेल",
    "बै",
    "लू",
    "द्",
    "ear",
    "उन्हें",
    "खेड़ा",
    "जीपुर",
    "शो",
    "साहि",
    "जहां",
    "वं",
    "कोलका",
    "बुंदे",
    "लि",
    "धु",
    "वॉ",
    "पुण",
    "इतिहा",
    "यहाँ",
    "शि",
    "उनके",
    "(अंग्रेज़ी",
    "लखनऊ",
    "हम्",
    "रुआ",
    "गै",
    "बाहरी",
    "Ex",
    "अध",
    "ले",
    "लो",
    "ent",
    "सम्बन्ध",
    "सेंट",
    "Y.",
    "(यूटीसी",
    "तमिल",
    "ंत",
    "शर्",
    "25.",
    "लै",
    "ad",
    "कटि",
    "संबद्ध",
    "WB",
    "आवश्यक",
    "अखबार",
    "जीता",
    "चन",
    "ढ़ी",
    "वी",
    "एस",
    "ik",
    "us",
    "वर्तमान",
    "वेब",
    "(M",
    "im",
    "वंश",
    "दिसंबर",
    "नौ",
    ",\"",
    "बेगूसराय",
    "9)",
    "56",
    "ती",
    "कोविल",
    "13",
    "सितंबर",
    "ال",
    "Planet",
    "यु",
    "इन",
    "डो",
    "साहित्य",
    "Gu",
    "लिए",
    "महा",
    "अल्मो",
    "मशी",
    "सं",
    "नाथ",
    "जाती",
    "Hind",
    "चंपारण",
    "oun",
    "क्षेत्र",
    "हो",
    "ंद",
    "विजय",
    "शनल",
    "पुरालेखित",
    "पौ",
    "53",
    "क्ष",
    "Ro",
    "दोनों",
    "सरकार",
    "ऑफ",
    "रि",
    "नागर",
    "भो",
    "संहार",
    "सभी",
    "सद",
    "म्स",
    "नाम",
    "यक",
    "मेट्रो",
    "aj",
    "अण्ड",
    "गुरु",
    "2024",
    "आन्ध्र",
    "दर्श",
    "प्रस्तावित",
    "वल",
    "हिन्दी,",
    "उपयुक्त",
    "जैसे",
    "यातायात",
    "गोरखपुर",
    "काकीनाडा",
    "कुम्भ",
    "बंगाल",
    "गूसराय",
    "डा",
    "फास्ट",
    "द्वीपसमूह",
    "ज्",
    "विकेट",
    "पंजाब",
    "गमन",
    "काल",
    "मैच",
    "हिमा",
    "दे",
    "परिच",
    "तिरु",
    "जाते",
    "साथ",
    "कटिहार",
    "Qual",
    "उद्योग",
    "(J",
    "रूप",
    "77",
    "करें",
    "साल",
    "काम",
    "हिंदी",
    "हिन्दू",
    "New",
    "मि",
    "वेश",
    "जलवायु",
    "शिव",
    "गोल",
    "संब",
    "ें",
    "पाठ",
    "बहु",
    "वर्",
    "भारत",
    "था,",
    "नेशनल",
    "लिस",
    "31",
    "World",
    "नीय",
    "उत्पाद",
    "३०",
    "सुपरफास्ट",
    "दू",
    "आई॰ऍस॰बी॰ऍ",
    "र्भ",
    "from",
    "ड़ा",
    "ये",
    "14",
    "घो",
    "ag",
    "ना",
    "दर",
    "चेन्न",
    "झा",
    "माता",
    "कृषि",
    "परिवार",
    "L.",
    "ढूँढें",
    "आई",
    "नाटक",
    "मशीन",
    "प्रस्ता",
    "कल",
    "तिहा",
    "दुनिया",
    "२०१५.",
    "शब्द",
    "छो",
    "सन्दर्भ",
    "सपुर",
    "P.",
    "नग",
    "जापान",
    "कृष",
    "is",
    "गोरख",
    "2023",
    "198",
    "जरा",
    "धन",
    "माल",
    "ला",
    "त्व",
    "मध",
    "छत्ती",
    "झी",
    "ib",
    "ति",
    "लोकसभा",
    "(B",
    "हे",
    "रह",
    "इं",
    "मुरादा",
    "पंचायत",
    "ed",
    "अव",
    "मंत्रा",
    "जिसे",
    "कांग्रेस",
    "फ़ि",
    "स्वत",
    "शता",
    "रन",
    "विजे",
    "17",
    "°E﻿",
    "फरवरी",
    "लोक",
    "दिन",
    "2003",
    "हीं",
    "शुरुआत",
    "फल",
    "lish",
    "संग्रहालय",
    "उन्होंने",
    "स्व",
    "ct",
    "सोन",
    "ष्ट्रीय",
    "प्रौद्योगिकी",
    "(एँ",
    "एल",
    "कप",
    "मीटर",
    "वेबसाइट",
    "गई",
    "सो",
    "हटा",
    "पूर्णिया",
    "गु",
    "ंस",
    "पुणे",
    "65",
    "ay",
    "40",
    "आध",
    "सीता",
    "भावना",
    "43",
    "फू",
    "44",
    "a.",
    "शासन",
    "कृ",
    "IC",
    "परि",
    "घाट",
    "सभा",
    "प्रसिद्ध",
    "Un",
    "(जन्म",
    "ce",
    "घु",
    "यो",
    "45",
    "दुर्",
    "ंखला",
    "स्कू",
    "स्थल",
    "एशिया",
    "कॉलेज",
    "प्रभा",
    "भूकम्प",
    "ज्ञ",
    "pp",
    "ज़",
    "अच्छ",
    "जा",
    "कला",
    "करना",
    "समाचार",
    "आन्ध्रप्रदेश",
    "नगला",
    "मन",
    "रण",
    "फ़ा",
    "कृपया",
    "चा",
    "जम्मू",
    "(PDF",
    "विधान",
    "Sc",
    "ity",
    "लाल",
    "कोड",
    "वर्ण",
    "गोवि",
    "लाम",
    "जिले",
    "with",
    "कौ",
    "हा",
    "पैसेंजर",
    "डेटा",
    "पन",
    "ली,",
    "जय",
    "रानीखेत",
    "फी",
    "मर",
    "नर",
    "स्थापना",
    "बिहार",
    "ओडि",
    "युद्ध",
    "शाली",
    "फिल्",
    "परिष",
    "रॉ",
    ").",
    "श्",
    "च्च",
    "दी",
    "ैल",
    "उत्तरकाशी",
    "मदाबाद",
    "्स",
    "विद्",
    "टू",
    "द्दा",
    "गढ़",
    "गत",
    "ते",
    "लेज",
    "49",
    "ers",
    "iz",
    "गां",
    "फ़िल्",
    "तिवारी",
    "Ch",
    "अनु",
    "धपुर",
    "ढूँढ",
    "at",
    "ंडो",
    "ढ़ा",
    "अल्मोड़ा",
    "Is",
    "ment",
    "निर्वाचन",
    "up",
    "Techn",
    "सिंह",
    "ड़ियाँ",
    "2021",
    "(PD",
    "बु",
    "अड",
    "Th",
    "देवासंभारत",
    "सबसे",
    "of",
    "पार्टी",
    "ंश",
    "सुधार",
    "मस्",
    "स्थापित",
    "घा",
    "ood",
    "गण",
    "Arch",
    "न्न",
    "भूमि",
    "ual",
    "(19",
    "ूर",
    "सागर",
    "लगभग",
    "अनेक",
    "जि",
    "इंग्लैंड",
    "ण्डल",
    "योग",
    "27.",
    "खोजें:",
    "Cric",
    "खु",
    "दिल्ली",
    "बेह",
    "नाडा",
    "जन",
    "pp.",
    "ass",
    "ॉर्",
    "शताब्",
    "अथ",
    "रत",
    "ड़ते",
    "कम्प",
    "Re",
    "कड़ियाँ",
    "और",
    "Process",
    "त्मक",
    "ल्तानपुर",
    "जम्",
    "Com",
    ".com.",
    "ची",
    "५:",
    "है,",
    "30",
    "पुनर्",
    "देहरादून",
    "Press",
    "साइट",
    "नदियाँ",
    "कर",
    "आइ",
    "प्त",
    "50",
    "an",
    "फो",
    "इया",
    "कक्ष",
    "णी",
    "गी",
    "क्स",
    "हुई",
    "बांग्",
    "फ़िल्म",
    "गुणा",
    "तृती",
    "वृ",
    "हु",
    "न्याया",
    "2017)",
    "माँ",
    "Air",
    "दपुर",
    "जपुर",
    "भाजपा",
    "55",
    "ate",
    "ow",
    "ww",
    "नाग",
    "201",
    "चे",
    "utt",
    "पर",
    "किम",
    "निर्देशांक:",
    "को",
    "केरल",
    "माइ",
    "प्रौ",
    "कु",
    "गंज",
    "मपुर",
    "%)",
    "ism",
    "द्वार",
    "August",
    "सिद्ध",
    "ंबई",
    "फतेहपुर",
    "u,",
    "ies",
    "मत",
    "स्रोत",
    "12",
    "जल",
    "tern",
    "स्वा",
    "पति",
    "मुक्त",
    "वायु",
    "9.",
    "न्",
    "डेल्",
    "मुख",
    "लैंड",
    "बि",
    "कुमाऊँ",
    "िया",
    "ep",
    "नंद",
    "ृत",
    "िक",
    "यश",
    "क्षि",
    "आगरा",
    "प्रथम",
    "लिये",
    "age",
    "ing,",
    "देखें[संपादित",
    "सी",
    "हि",
    "हवाई-",
    "मैन",
    "निर्देशांक",
    "पुदु",
    "जालस्थ",
    "जयपुर",
    "खो",
    "ख़",
    "उत्",
    "टे",
    "बन",
    "शताब्दी",
    "नगर",
    "ज़िला",
    "नन्द",
    "10.",
    "विशेष",
    "टि",
    "2020",
    "दु",
    "रा",
    "शीर्ष",
    "स्वी",
    "२०",
    "इन्हें",
    "चुना",
    "अथवा",
    "भाषा(एँ)",
    "ताल",
    "प्रमुख",
    "गम",
    "नै",
    "रखा",
    "--",
    "समूह",
    "लाइन",
    "मु",
    "(यूटीसी+",
    "चुनाव",
    "2011)",
    "भग",
    "सम्ब",
    "वल्लभ",
    "प्",
    "ion",
    "Sun,",
    "29",
    "2020.",
    "समय",
    "फ़र",
    "भूगोल",
    "ine",
    "जर",
    "48",
    "63",
    "राज",
    "बड़ा",
    "पूर्व",
    "सेना",
    "राज्यपाल",
    "11",
    "th",
    "बी",
    "आधुनिक",
    "पुदुच्चे",
    "अभि",
    "ाद",
    "डीह",
    "मणि",
    "ठा",
    "म,",
    "सफल",
    "De",
    "Lon",
    "होंने",
    "37",
    "ौन",
    "गढ़वाल",
    "यशवंत",
    "हरियाणा",
    "कॉर्बेट",
    "डेल्ही",
    "नैनी",
    "सिक्किम",
    "दक्षि",
    "ah",
    "मुजफ्फरपुर",
    "38",
    "तक",
    "मस्जिद",
    "टर्मिन",
    "(यूटीसी+5:",
    "तेह",
    "रु",
    "उत्तरा",
    "जीव",
    "सत",
    "ण्",
    "लन",
    "विज्ञान",
    "भाई",
    "धार",
    "होते",
    "तीन",
    "पाल",
    "all",
    "चौ",
    "ue",
    "ंभ",
    "प्रवेश",
    "हैदरा",
    "पट",
    "ित",
    "उसे",
    "इंदौर",
    "se",
    "ह्",
    "काशी",
    "ष्ट",
    "अंग्रेजी",
    "भु",
    "यम",
    "वो",
    "SA",
    "री",
    "विश्वविद्यालय",
    "...",
    "जिन",
    "ak",
    "41",
    "असम",
    "कि",
    "बेल",
    "ind",
    "अमृत",
    "हॉ",
    "Plan",
    "जी",
    "भाग",
    "पौराणिक",
    "राष्ट्रीय",
    "re",
    "पिथ",
    "For",
    "जे",
    "Mar",
    "ort",
    "Airport",
    "इस",
    "नारायण",
    "nal",
    "पक",
    "संख्या",
    "्ड",
    "पे",
    "1.",
    "टर",
    "वत",
    "Me",
    "88",
    "ख्या",
    "पुरालेखित.",
    "प्रकाशित",
    "रंग",
    "22",
    "WA",
    "अह",
    "पी",
    "36",
    "रपुर",
    "वाह",
    "शारदा",
    "(अंग्रेज़ी)",
    "24",
    "ook",
    "क्",
    "-सम्बन्धी",
    "उप",
    "पाकिस्तान",
    "करने",
    "भे",
    "December",
    "पदक",
    "धी",
    "op",
    "-02",
    "con",
    "मंड",
    "१९",
    "):",
    "टा",
    "कनाडा",
    "घर",
    "STO",
    "पहले",
    "al",
    "(एँ)",
    "ोर",
    "मुंबई",
    "निर्मा",
    "एक्स्",
    "कुमाऊँनी",
    "द्दी",
    "कॉ",
    "सर",
    "(JSTO",
    "भिन्न",
    "सौ",
    "महल",
    "46",
    "मदद",
    "इससे",
    "र्",
    "प्रयाग",
    "तो",
    "ot",
    "ठन",
    "कहते",
    "com",
    "ब्",
    "इंजीनि",
    "पश्चि",
    "पि",
    "मध्य",
    "नाई",
    "978",
    "igh",
    "प्राप्त",
    "(यू",
    "ंब",
    "शे",
    "दिसम्बर",
    "टीवी",
    "sh",
    "उर्",
    "Con",
    "ol",
    "आन्ध",
    "ड़िया",
    "एफ",
    "फु",
    "किया,",
    "झारखण्ड",
    "वाँ",
    "-0",
    "लक्षद्वीप",
    "WI",
    "स्कूल",
    "बांद्रा",
    "अहमदाबाद",
    "टो",
    "in",
    "15",
    "ld",
    "जनवरी",
    "52",
    "भाषाएँ",
    "खुर्द",
    "मढ़ी",
    "गोवा",
    "WR",
    "72",
    "संपाद",
    "बा",
    "a)",
    "छत्तीस",
    "पश्",
    "में,",
    "पं",
    "टूर्नामेंट",
    "वै",
    "किसी",
    "बढ़ाने",
    "दत्त",
    "मुंगेर",
    "लेख",
    "धर्म",
    "Da-Wen",
    "जालस्थल:",
    "Zheng",
    "अंग्रेज़ी",
    "फ़",
    "-१",
    "२००",
    "सितम्बर",
    "95",
    "अतिरिक्त",
    "भुबने",
    "लॉ",
    "विध",
    "वार्ता",
    "जर्",
    "पहली",
    "सु",
    "बेहतर",
    "om",
    "शून्य",
    "अगस्त",
    "जिसके",
    "न,",
    "200",
    "90",
    "यन",
    "ल्स",
    "किताबें",
    "In",
    "सन्द",
    "Da",
    "en",
    "देवा",
    "अभिनेता",
    "2016.",
    "um",
    "न्त",
    "परिषदनगर",
    "स्वामी",
    "2009",
    "ंगलौर",
    "गांव",
    "ur",
    "ड़ी",
    "के",
    "35",
    "संस्",
    "80",
    "(T",
    "79",
    "वाहा",
    "बना",
    "काकी",
    "97",
    "ली",
    "मै",
    "ro",
    "चु",
    "मीर",
    "नपुर",
    "प्रकाश",
    "सि",
    "बह",
    "आंध",
    "थु",
    "बाजी",
    "ff",
    "विस्त",
    "अलावा",
    "ओडिशा",
    "कह",
    "चीन",
    "El",
    "जिला",
    "षय",
    "अक्तू",
    "कम",
    "चि",
    "भि",
    "ry",
    "ark",
    "as",
    "ational",
    "ember",
    "59",
    "जिसमें",
    "से",
    "कुछ",
    "एँ",
    "समाज",
    "ary",
    "पास",
    "ug",
    "ड़े",
    "३०)",
    "या",
    "ओवर",
    "स्",
    "रेलवे",
    "प्राचीन",
    "o,",
    "अज",
    "ction",
    "यी",
    "गो",
    "गुजरात",
    "एक",
    "तेल",
    "(2006)",
    "एक्सप्रेस",
    "San",
    "टीम",
    "मई",
    "नी",
    "ण्डव",
    "विभिन्न",
    "यहां",
    "ang",
    "].",
    "तिलक",
    "पर्वत",
    "ल्",
    "दल",
    "प्रखण्ड",
    "तुहा",
    "बागेश्वर",
    "फिल्म",
    "gov",
    "अन्य",
    "ISBN",
    "पिथौरा",
    "कश्",
    "Tim",
    "2022",
    "वु",
    "देवासं",
    "मे",
    "निगम",
    "शब्",
    "शी",
    "आन्दो",
    "अब",
    "दिखा",
    "ड़",
    "पृष्ठ",
    "वरी",
    "26",
    "Aug",
    "खर",
    "छपरा",
    "पर्यटन",
    "34",
    "बू",
    "°N",
    "पुत्र",
    "आव",
    "शा",
    "मार्च",
    "मग",
    "है",
    "फा",
    "विद्यालय",
    "बर",
    "तर",
    "A.",
    "यात",
    "मंत्री",
    "लक",
    "ch",
    "वर",
    "व्य",
    "ल:",
    "(जनवरी",
    "ac",
    "अप",
    "केवल",
    "The",
    "बहुत",
    "तम",
    "अंग्रे",
    "28",
    "याँ",
    "पृ",
    "ish",
    "ढ़",
    "ूँ",
    "बनाया",
    "Im",
    "मण्डल",
    "ir",
    "उर्फ",
    "sembly",
    "ून",
    "वर्ग",
    "ता",
    "प्रति",
    "74",
    "डीओ",
    "बीकाने",
    "निम्",
    "मगध",
    "ों",
    "मंडल:",
    "am",
    "साम्राज्य",
    "खे",
    "पैसेंज",
    "96",
    "संबंध",
    "फै",
    "प्रदान",
    "२०१",
    "वेबैक",
    "रल",
    "मो",
    "ication",
    "St",
    "विषय",
    "ौला",
    "निकोबार",
    "esh",
    "Sun",
    "क्रिकेट",
    "पेशा",
    "od",
    "टक",
    "y,",
    "हेतु",
    "भौ",
    "दानापुर",
    "ृंखला",
    "हुआ",
    "स्को",
    "सम",
    "अधिक",
    "बहुगुणा",
    "षण",
    "बीच",
    "उल्लेखनीयता",
    "लोग",
    "बत",
    "ge",
    "आईसी",
    "शक्ति",
    "राम",
    "खि",
    "वह",
    "संघ",
    "सैन",
    "उच्च",
    "id",
    "धर्",
    "जग",
    "बंगलौर",
    "छा",
    "स्कोर",
    "सिकंदराबाद",
    "थे",
    "ai",
    "ic",
    "3.",
    "पत",
    "तहसी",
    "आई॰ऍ",
    "खिला",
    "खी",
    "March",
    "गुवाहाटी",
    "पहाड़ी",
    "खगड़िया",
    "ng",
    "टाइ",
    "National",
    "(JSTOR)",
    "ंट",
    "अयो",
    "विधायक",
    "शीर्",
    "पुर",
    "इल",
    "उनका",
    "ट्स",
    "94",
    "बे",
    "16",
    "वर्त",
    "ok",
    "ap",
    "33",
    "मी",
    "pl",
    "वाई",
    "परिषद",
    "कोई",
    "ंगल",
    "ख्",
    "ket",
    "it",
    "दय",
    "अरुणा",
    "मुंगे",
    "oo",
    "पा",
    "-२",
    "आई॰ऍस॰बी॰ऍन",
    "चेन्नई",
    "उपज़िला",
    "आंध्र",
    "सम्बन्धी",
    "रवि",
    "पिथौरागढ़",
    "Pl",
    "Al",
    "तीर्",
    "न्द",
    "सिटी",
    "शन",
    "दक्षिण",
    "गड़िया",
    "(मदद)",
    "नैनीताल",
    "बढ़",
    "अर्थ",
    "प्र",
    "ए-",
    "Pradesh",
    "कुंड",
    "श्व",
    "जो",
    "वा",
    "-W",
    "गंगा",
    "गा",
    "गल",
    "(यूटीसी+5:30)",
    "तिहासिक",
    "शेष",
    "चम्",
    "Univers",
    "\"P",
    "Archived",
    "उद्धरण",
    "धर",
    "था",
    "जू",
    "Comp",
    "तह",
    "लपुर",
    "भी",
    "to",
    "शाह",
    "10",
    "संस्कृ",
    "93",
    ".0",
    "Ind",
    "पृ॰",
    "dh",
    "खंड",
    "हवाई",
    "बीघा",
    "उस",
    "ँव",
    "बख्",
    "लय",
    "गुरुकुल",
    "राजमार्ग",
    "नेट",
    "स्त",
    "योजना",
    "ult",
    "देशांक",
    "ससे",
    "-ए-",
    "जै",
    "cl",
    "ia",
    "chn",
    "जानकारी",
    "आई॰ऍस॰बी",
    "International",
    "ष्",
    "(मदद",
    "नन्दन",
    "मथु",
    "पू",
    "धि",
    "भर",
    "70",
    "व्यव",
    "रावत",
    "प्रका",
    "अम",
    "सू",
    "ev",
    "(PDF).",
    "ड़की",
    "So",
    "होता",
    "आधिकारिक",
    "अपने",
    "डॉ",
    "आयो",
    "टी",
    "\".",
    "काण्ड",
    "थी",
    "प्रदेश",
    "प्रयागराज",
    "जाति",
    "अप्रैल",
    "199",
    "शहर",
    "पात",
    "तिथि",
    "नयी",
    "राजधानी",
    "वाल",
    "लख",
    "देश",
    "दरभंगा",
    "नरसंहार",
    "21",
    "सब",
    "सिं",
    "महिला",
    "el",
    "ज़ा",
    "st",
    "प्रेस",
    "os",
    "चम्पा",
    "राय",
    "aw",
    "सिर",
    "भाषा",
    "हाव",
    "गोविन्द",
    "वाराण",
    "(200",
    "196",
    "Intern",
    "मद",
    "R)",
    "),",
    "क्रम",
    "च्छ",
    "87",
    "66",
    "त्रिवेंद्र",
    "गौ",
    ".gov.in",
    ".com",
    "त्त",
    "मथुरा",
    "सदस्य",
    "ऊँ",
    "78",
    "(यूटीसी+५:३०)",
    "गोदा",
    "ही",
    "नहीं",
    "टीसी",
    "(2011)",
    "Jan",
    "न्ध",
    "मा",
    "″N",
    "शुरुआ",
    "विद्वान",
    "रू",
    "2007",
    "की",
    "अभिगमन",
    "ढूँढें)",
    "मुजफ्",
    "सक",
    "आदि",
    "प्रवेशद्वार",
    "छोटा",
    "जोड़कर",
    "54",
    "बड़े",
    "बस",
    "वि",
    "एरनाकुलम",
    "साहिब",
    "18",
    "′N",
    "हिन्दी,संस्कृत",
    "मक",
    "थि",
    "वाराणसी",
    "होने",
    "एवं",
    "एं",
    "स्टेशन",
    "खोजें",
    "च्",
    "BN",
    "प्रदर्",
    "हावड़ा",
    "डे",
    "विकिपीडिया",
    "ing",
    ",00",
    "प्रामाणिक",
    "ive",
    "उद्यान",
    "Lonely",
    "डि",
    "une",
    "port",
    "ने",
    "राष्ट्रपति",
    "ऐतिहासिक",
    "टै",
    "नंदा",
    "चमो",
    "oc",
    "कै",
    "for",
    "टर्मिनस",
    "आदर्श",
    "Eng",
    "es",
    "सै",
    "ES",
    "अति",
    "तहसील",
    "दरभ",
    "म्ब",
    "भोज",
    "इड",
    "by",
    "फि",
    "(निर्देशांक",
    "शैली",
    "अनुसार",
    "हेम",
    "Am",
    "अक्टू",
    "संर",
    "विस्तृत",
    "मंडल",
    "मोहम्",
    "द्दीनपुर",
    "थम",
    "and",
    "क्ल",
    "वर्ष",
    "27",
    "कं",
    "Zh",
    "परिणा",
    "लेकिन",
    "कृप",
    "51",
    "मंदि",
    "करें]",
    "Sh",
    "av",
    "उदय",
    "संगठन",
    "द्ध",
    "पीडिया",
    "करण",
    "एम",
    "का",
    "नु",
    "गि",
    "यल",
    "ओं",
    "सकता",
    "उल्लेख",
    "्र",
    "शरी",
    "क़",
    "बाद,",
    "Food",
    "पाकि",
    "06",
    "हिमाचल",
    "गुवाहा",
    "तुर्",
    "चक",
    "लु",
    "सामग्री",
    "ut",
    "गू",
    "हैं",
    "de",
    "स,",
    "C.",
    "मेर",
    "2014.",
    "संपादित",
    "राजधानी:",
    "गाँव",
    "if",
    "30)",
    "राजवंश",
    "ान",
    "′E﻿",
    "art",
    "अयोध्या",
    "क,",
    "पाद",
    "भारतीय",
    "ob",
    "१०",
    "दश",
    "प्रशासनिक",
    "एसटी",
    "Da-W",
    "मुन",
    "ul",
    "ज़ोर",
    "निर्देशक",
    "or",
    "73",
    "uary",
    "20",
    "″E﻿",
    "में).",
    "पुरुष",
    "मुख्य",
    "जुड़ते",
    "..",
    "ब्रिटिश",
    "कुर",
    "इंटरसिटी",
    "म्बर",
    "अंतर",
    "कूट",
    "अन",
    "दास",
    "जिद",
    "ip",
    "आई॰ऍस॰",
    "ध्",
    "हता",
    "अकादमी",
    "परिचय",
    "यमुना",
    "s,",
    "लैण्ड",
    "a,",
    "पुरालेख",
    "इट",
    ".gov",
    "75",
    "निजा",
    "लीग",
    "गोस्वामी",
    "सीमा",
    "डी",
    "फर",
    "जीत",
    "धाम",
    "त्रिवेंद्रम",
    "गए",
    "विभाग",
    "सेवा",
    "छत्तीसगढ़",
    "उत्तराखण्ड",
    "ank",
    "आईएसटी",
    "आर",
    "अवध",
    "कर्नाटक",
    "et",
    "तु",
    "बाग",
    "ect",
    "गया",
    "ज़ी",
    "नऊ",
    "जु",
    "ज्ञान",
    "00",
    "दा",
    "2.",
    "पुदुच्चेरी",
    "77.",
    "ौली",
    "फ्",
    "olog",
    "पो",
    "पल",
    "जब",
    "वे",
    "सा",
    "मुज",
    "मुरादाबाद",
    "चर्चा",
    "IS",
    "इंटर",
    "पोर्टल",
    "रसू",
    "मह",
    "कड़ियाँ[संपादित",
    "विजेता",
    "उल्",
    "le",
    "Ap",
    "यर",
    "सूचना",
    "लाह",
    "अख",
    "शामिल",
    "निर्वा",
    "25",
    "हवेली",
    "राज्य",
    "अन्तर्गत",
    "यस",
    "जुलाई",
    "पूर्",
    "ंग",
    "मंदिर",
    "ंक",
    "32",
    "Te",
    "ill",
    "पुरस्",
    "[संपादित",
    "कई",
    "प्रशा",
    "देव",
    "यदि",
    "ट्",
    "'s",
    "47",
    "सकते",
    "कांग",
    "१५",
    "चम्पावत",
    "23",
    "76",
    "विश्व",
    "फे",
    "अक्",
    "हाला",
    "टिश",
    "il",
    "ard",
    "गर",
    "मणिपुर",
    "विधानसभा",
    "युक्त",
    "अरब",
    "खेत",
    "कोश",
    "मेल",
    "औरंगाबाद",
    "the",
    "दो",
    "स्ट",
    "किन",
    "जालपृष्ठ",
    "्रीय",
    "बल",
    "फिर",
    "1-",
    "्य",
    "पौड़ी",
    "टल",
    "ter",
    "निर्माण",
    "खण्ड",
    "ओर",
    "निर्",
    "महत्व",
    "सां",
    "पूर्ण",
    "अकाद",
    "बाँ",
    "au",
    "जिसका",
    "मॉ",
    "57",
    "षा",
    "राष्ट्र",
    "Ar",
    "(यूटीसी+५:",
    "भूभाग",
    "ेस",
    "ier",
    "हर",
    "लम",
    "ंच",
    "यत",
    "लद्दा",
    "एक्स्प्रेस",
    "नव",
    "यू",
    "42",
    "WM",
    "में",
    "घटना",
    "तब",
    "णा",
    "2019.",
    "बो",
    "लिंक",
    "विल",
    "58",
    "अमृतसर",
    "ra",
    "ऋष",
    "चै",
    "फ़रवरी",
    "चर्",
    "पॉ",
    "अग",
    "ee",
    "खने",
    "लाव",
    "विकास",
    "देखें",
    "सोनपुर",
    "सांख्यिकी",
    "अर",
    "ध्या",
    "जहा",
    "भा",
    "eb",
    "ess",
    "हिन्दी",
    "बांग्लादेश",
    "दृ",
    "प्रांत",
    "एर",
    "ठी",
    "अल",
    "क्षे",
    "मार्ग",
    "द्वारा",
    "रै",
    "नदी",
    "ंख",
    "थो",
    "कुमा",
    "जाल",
    "पै",
    "हल्",
    "केदार",
    "°0",
    "नेता",
    "आई॰ऍस॰बी॰ऍन॰",
    "(S",
    "णिक",
    "गाँव-सम्बन्धी",
    "इतिहास",
    "सम्बन्धित",
    "Engine",
    "एन",
    "मेघा",
    "कोट",
    "उनकी",
    "emb",
    "बॉ",
    "तन",
    "ud",
    "अजमेर",
    "ly",
    "85",
    "वेली",
    "मिन",
    "ub",
    "2018.",
    "Archiv",
    "र,",
    "शाखा",
    "पट्टी",
    "स॰",
    "त्",
    "eg",
    "ंज",
    "ig",
    "नाडु",
    "सन",
    "नल",
    "लाई",
    "ट्ट",
    "र्द",
    "मिल",
    "डेटाबेस",
    "उपयोग",
    "1,",
    "ज़ि",
    "रो",
    "आम",
    "प्रयोग",
    "मू",
    "शु",
    "कू",
    "बीकानेर",
    "संस्करण",
    "नि",
    "98",
    "ack",
    "धा",
    "2008",
    "पश्चिम",
    "पह",
    "जामा",
    "Journal",
    "रे",
    "iv",
    "ab",
    "मण",
    "ौल",
    "मोती",
    "ल्ला",
    "मेघालय",
    "वन",
    "श्रेणी",
    "पेट्रो",
    "अंतर्राष्ट्रीय",
    "लासपुर",
    "ist",
    "लभ",
    "(P",
    "चमोली",
    "an,",
    "नो",
    "जनता",
    "ॉन",
    "आन्दोलन",
    "ublish",
    "5:",
    "un",
    "नई",
    "रुड़की",
    "www",
    "जोड़",
    "लर",
    "og",
    "www.",
    "An",
    "तौर",
    "अरुणाचल",
    "होती",
    "तेलंगाना",
    "खा",
    "स्रोतहीन",
    "सिस्ट",
    "ार",
    "वीप",
    "हैदराबाद",
    "on",
    "गुजरा",
    "ण्ड",
    "ल्ली",
    "मूल",
    "कुल",
    "मौ",
    "विश्वसनीय",
    "सुपर",
    "ST",
    "करता",
    "सूची",
    "वीं",
    "ant",
    "नृत्य",
    "सामान्य",
    "ौर",
    "कोड:"
  ],
  "merges": {
    "् र": "्र",
    "स ्": "स्",
    "ा र": "ार",
    "प ्र": "प्र",
    "क ्": "क्",
    "े ं": "ें",
    "र ा": "रा",
    "य ा": "या",
    "प ु": "पु",
    "े स": "ेस",
    "क े": "के",
    "र ्": "र्",
    "ए क्": "एक्",
    "प्र ेस": "प्रेस",
    "एक् स्": "एक्स्",
    "एक्स् प्रेस": "एक्स्प्रेस",
    "ा न": "ान",
    "ि त": "ित",
    "पु र": "पुर",
    "न ्": "न्",
    "म ें": "में",
    "क ा": "का",
    "ह ै": "है",
    "व ि": "वि",
    "स ं": "सं",
    "ल ा": "ला",
    "क र": "कर",
    "न ा": "ना",
    "क ी": "की",
    "2 0": "20",
    "स े": "से",
    "व ा": "वा",
    "क ो": "को",
    "त ा": "ता",
    "ि या": "िया",
    "ल े": "ले",
    "द े": "दे",
    "् य": "्य",
    "त ि": "ति",
    "ा द": "ाद",
    "न े": "ने",
    "ं ग": "ंग",
    "ल ी": "ली",
    "ो ं": "ों",
    "न ि": "नि",
    "म ा": "मा",
    "ड ़": "ड़",
    "र ी": "री",
    "औ र": "और",
    "त ्": "त्",
    "स ा": "सा",
    "a n": "an",
    "ह ा": "हा",
    "ल ि": "लि",
    "रा ज": "राज",
    "भ ा": "भा",
    "प र": "पर",
    "ल ्": "ल्",
    "कर ें": "करें",
    "ि क": "िक",
    "1 9": "19",
    "त ी": "ती",
    "म ु": "मु",
    "स ी": "सी",
    "i n": "in",
    "द ्": "द्",
    "म ्": "म्",
    "ज ि": "जि",
    "ज ़": "ज़",
    "ग र": "गर",
    "प ाद": "पाद",
    "20 1": "201",
    "न ी": "नी",
    "सं पाद": "संपाद",
    "संपाद ित": "संपादित",
    "ज ा": "जा",
    "[ संपादित": "[संपादित",
    "करें ]": "करें]",
    "ट ी": "टी",
    "ए क": "एक",
    "दे श": "देश",
    "् ड": "्ड",
    "ले ख": "लेख",
    "ब ा": "बा",
    "e r": "er",
    "क् ष": "क्ष",
    "क ि": "कि",
    "स् थ": "स्थ",
    "श ्": "श्",
    "o n": "on",
    "ण ्ड": "ण्ड",
    "क ु": "कु",
    "o r": "or",
    "स ि": "सि",
    "न गर": "नगर",
    "a l": "al",
    "ं ड": "ंड",
    "न् द": "न्द",
    "त् त": "त्त",
    "प ा": "पा",
    "a r": "ar",
    "म े": "मे",
    "a t": "at",
    "e n": "en",
    "ग ा": "गा",
    "इ स": "इस",
    "ह ी": "ही",
    "म ि": "मि",
    "ष ्": "ष्",
    "ग म": "गम",
    "व े": "वे",
    "उ त्त": "उत्त",
    "ं द": "ंद",
    "ब र": "बर",
    "ह ि": "हि",
    "e s": "es",
    "म ी": "मी",
    "है ं": "हैं",
    "ढ ़": "ढ़",
    "त े": "ते",
    "ज ी": "जी",
    "व ी": "वी",
    "ज ो": "जो",
    "श ा": "शा",
    "भार त": "भारत",
    "म ू": "मू",
    "भ ि": "भि",
    "ह ु": "हु",
    "ग ो": "गो",
    "श् व": "श्व",
    "ल य": "लय",
    "ह ो": "हो",
    "ब ि": "बि",
    "द ि": "दि",
    "राज ्य": "राज्य",
    "ल ो": "लो",
    "र े": "रे",
    "1 0": "10",
    "ज न": "जन",
    "भ ी": "भी",
    "थ ा": "था",
    "स ु": "सु",
    "प ू": "पू",
    "र ू": "रू",
    "अ भि": "अभि",
    "द ी": "दी",
    "द ा": "दा",
    "क ृ": "कृ",
    "ग ु": "गु",
    "o f": "of",
    "t h": "th",
    "नि र्": "निर्",
    "र ु": "रु",
    "थ ि": "थि",
    "य ो": "यो",
    "i s": "is",
    "ब ी": "बी",
    "2 3": "23",
    "i c": "ic",
    "20 0": "200",
    "ह र": "हर",
    "व र्": "वर्",
    "an d": "and",
    "स र": "सर",
    "ख ण्ड": "खण्ड",
    "लि ए": "लिए",
    "i on": "ion",
    "स् ट": "स्ट",
    "उ प": "उप",
    "य ह": "यह",
    "ष् ट": "ष्ट",
    "म ो": "मो",
    "पर ि": "परि",
    "उत्त रा": "उत्तरा",
    "अ ध": "अध",
    "प्र देश": "प्रदेश",
    "ति थि": "तिथि",
    "वि श्व": "विश्व",
    "प ी": "पी",
    "च े": "चे",
    "ग ढ़": "गढ़",
    "गम न": "गमन",
    "2 4": "24",
    "ष ा": "षा",
    "फ ़": "फ़",
    "व ं": "वं",
    "ग या": "गया",
    "अभि गमन": "अभिगमन",
    "2 6": "26",
    "भ ू": "भू",
    "ज़ ि": "ज़ि",
    "e d": "ed",
    "आ ध": "आध",
    "2 8": "28",
    "स म": "सम",
    "ट र": "टर",
    "न् न": "न्न",
    "भा षा": "भाषा",
    "ट ा": "टा",
    "ब े": "बे",
    "2 1": "21",
    "क्ष े": "क्षे",
    "पू र्": "पूर्",
    "य ु": "यु",
    "प ्": "प्",
    "i t": "it",
    "क्षे त्र": "क्षेत्र",
    "स ू": "सू",
    "ं क": "ंक",
    "उत्तरा खण्ड": "उत्तराखण्ड",
    "\" .": "\".",
    "र् भ": "र्भ",
    "u r": "ur",
    "रू प": "रूप",
    "in g": "ing",
    "i r": "ir",
    "र ो": "रो",
    "पुरा लेख": "पुरालेख",
    "च ा": "चा",
    ") .": ").",
    "2 9": "29",
    "3 0": "30",
    "मू ल": "मूल",
    "ँ व": "ँव",
    "ड़ ा": "ड़ा",
    "म द": "मद",
    "च ि": "चि",
    "वि द्या": "विद्या",
    "2 5": "25",
    "a s": "as",
    "जि ला": "जिला",
    "स् त": "स्त",
    "ख ा": "खा",
    "2 7": "27",
    "u n": "un",
    "e l": "el",
    "र ि": "रि",
    "द् ध": "द्ध",
    "विद्या लय": "विद्यालय",
    "न ु": "नु",
    "ज़ि ला": "ज़िला",
    "मु ख": "मुख",
    "गा ँव": "गाँव",
    "अध िक": "अधिक",
    "स्रो त": "स्रोत",
    "a m": "am",
    "इ ं": "इं",
    "1 4": "14",
    "पुरालेख ित": "पुरालेखित",
    "ं त": "ंत",
    "ज ्": "ज्",
    "भा ग": "भाग",
    "ट ि": "टि",
    "ण ा": "णा",
    "I n": "In",
    "श न": "शन",
    "ौ र": "ौर",
    "फ ि": "फि",
    "म ै": "मै",
    "स न्द": "सन्द",
    "भारती य": "भारतीय",
    "सन्द र्भ": "सन्दर्भ",
    "- 0": "-0",
    "or t": "ort",
    "श ी": "शी",
    "1 1": "11",
    "0 0": "00",
    "प ट": "पट",
    "ह े": "हे",
    "ल पुर": "लपुर",
    "ए ँ": "एँ",
    "ू न": "ून",
    "पुरालेखित .": "पुरालेखित.",
    "व री": "वरी",
    "श ि": "शि",
    "ना म": "नाम",
    "स ो": "सो",
    "c h": "ch",
    "i a": "ia",
    "न ो": "नो",
    "चे न्न": "चेन्न",
    "r o": "ro",
    "ब ्": "ब्",
    "ं ध": "ंध",
    "1 8": "18",
    "आ ई": "आई",
    "th e": "the",
    "जो ड़": "जोड़",
    "ड े": "डे",
    "p ort": "port",
    "i l": "il",
    "7 8": "78",
    "ड ी": "डी",
    "चेन्न ई": "चेन्नई",
    "२ ०": "२०",
    "उत्त र": "उत्तर",
    "स भा": "सभा",
    "अ प": "अप",
    "विश्व विद्यालय": "विश्वविद्यालय",
    "at ion": "ation",
    "क ै": "कै",
    "e m": "em",
    "व र": "वर",
    "ड़ िया": "ड़िया",
    "प े": "पे",
    "o l": "ol",
    "ड़ ी": "ड़ी",
    "है ,": "है,",
    "e t": "et",
    "ज् ञ": "ज्ञ",
    "क् त": "क्त",
    "्री य": "्रीय",
    "19 9": "199",
    "अ ंग": "अंग",
    "च ्": "च्",
    "ष्ट ्रीय": "ष्ट्रीय",
    "द ु": "दु",
    "प ि": "पि",
    "ही ं": "हीं",
    "च ी": "ची",
    "6 3": "63",
    "a d": "ad",
    "वि ध": "विध",
    "इ न": "इन",
    "u s": "us",
    "य े": "ये",
    "o m": "om",
    "ड ि": "डि",
    "ल ै": "लै",
    "आध िकारिक": "आधिकारिक",
    "en t": "ent",
    "ब ु": "बु",
    "न् ध": "न्ध",
    "न पुर": "नपुर",
    "त ु": "तु",
    "द् वारा": "द्वारा",
    "ज ु": "जु",
    "ज़ ी": "ज़ी",
    "न हीं": "नहीं",
    "6 0": "60",
    "उ न": "उन",
    "यो ग": "योग",
    "अंग ्रे": "अंग्रे",
    "थ ी": "थी",
    "मद द": "मदद",
    "ए स": "एस",
    "A ir": "Air",
    "रा म": "राम",
    "नि गम": "निगम",
    "1 5": "15",
    "व न": "वन",
    "दे वा": "देवा",
    "श ु": "शु",
    "Air port": "Airport",
    "सि टी": "सिटी",
    "य ू": "यू",
    "जान कारी": "जानकारी",
    "थ े": "थे",
    "अ नु": "अनु",
    "प ो": "पो",
    "ज य": "जय",
    "द् वार": "द्वार",
    "इं टर": "इंटर",
    "ओ ं": "ओं",
    "E ﻿": "E﻿",
    "सा थ": "साथ",
    "जि ले": "जिले",
    "i v": "iv",
    "लो क": "लोक",
    "1 7": "17",
    "सन्दर्भ [संपादित": "सन्दर्भ[संपादित",
    "ति हा": "तिहा",
    "1 6": "16",
    "मि ल": "मिल",
    "सर कार": "सरकार",
    "व त": "वत",
    "देवा सं": "देवासं",
    "ड ा": "डा",
    "जा ता": "जाता",
    "देशा ंक": "देशांक",
    "जोड़ कर": "जोड़कर",
    "1 3": "13",
    "च ल": "चल",
    "निर् देशांक": "निर्देशांक",
    "5 0": "50",
    "In d": "Ind",
    "c t": "ct",
    "ट न": "टन",
    "u l": "ul",
    "म स्": "मस्",
    "4 0": "40",
    "कर ने": "करने",
    "कु ल": "कुल",
    "ब ो": "बो",
    "जि द": "जिद",
    "अंग्रे ज़ी": "अंग्रेज़ी",
    "च क": "चक",
    "प ं": "पं",
    "म ध": "मध",
    "ट े": "टे",
    "2 2": "22",
    "प ह": "पह",
    "य र": "यर",
    "o o": "oo",
    "पूर् व": "पूर्व",
    "T h": "Th",
    "द र": "दर",
    "बि हार": "बिहार",
    "जन वरी": "जनवरी",
    "ए वं": "एवं",
    "ड़िया ँ": "ड़ियाँ",
    "फि ल्": "फिल्",
    "श े": "शे",
    "मस् जिद": "मस्जिद",
    "म हा": "महा",
    "त क": "तक",
    "क ड़ियाँ": "कड़ियाँ",
    "ल् ली": "ल्ली",
    "r a": "ra",
    "घ ा": "घा",
    "ख े": "खे",
    "सं स्": "संस्",
    "न् त": "न्त",
    "प श्": "पश्",
    "म न": "मन",
    "सम य": "समय",
    "का ल": "काल",
    "7 0": "70",
    "ण ी": "णी",
    "i d": "id",
    "द ो": "दो",
    "रे ल": "रेल",
    "व ै": "वै",
    "अ ल": "अल",
    "२० १": "२०१",
    "ज े": "जे",
    "न दी": "नदी",
    "विध ान": "विधान",
    "नी य": "नीय",
    "स न": "सन",
    "रा ष्ट्रीय": "राष्ट्रीय",
    "ब हु": "बहु",
    "व ्य": "व्य",
    "य न": "यन",
    "ण्ड ल": "ण्डल",
    "कृ प": "कृप",
    "कृप या": "कृपया",
    "( 200": "(200",
    "प ृ": "पृ",
    "क ॉ": "कॉ",
    "an g": "ang",
    "स क": "सक",
    "प् त": "प्त",
    "1 2": "12",
    "4 8": "48",
    "ट ्": "ट्",
    "प्र ति": "प्रति",
    "is t": "ist",
    "त र": "तर",
    "ऊ ँ": "ऊँ",
    "म ह": "मह",
    "पी डिया": "पीडिया",
    "म ग": "मग",
    "फ ा": "फा",
    "s t": "st",
    "विकि पीडिया": "विकिपीडिया",
    "पश् चि": "पश्चि",
    "u t": "ut",
    "इंटर सिटी": "इंटरसिटी",
    "ज ै": "जै",
    "( 19": "(19",
    "es s": "ess",
    "च ु": "चु",
    "द ू": "दू",
    "अ व": "अव",
    "मे ल": "मेल",
    "कु मा": "कुमा",
    "सि ं": "सिं",
    "a y": "ay",
    "6 5": "65",
    "ष् ठ": "ष्ठ",
    "इ तिहा": "इतिहा",
    "a g": "ag",
    "उप ज़िला": "उपज़िला",
    "ग ्": "ग्",
    "i m": "im",
    "जन् म": "जन्म",
    "स ै": "सै",
    "फ र": "फर",
    "ल ु": "लु",
    "वा ल": "वाल",
    "पा ल": "पाल",
    "सम् ब": "सम्ब",
    "हों ने": "होंने",
    "l e": "le",
    "परि ष": "परिष",
    "( अंग्रेज़ी": "(अंग्रेज़ी",
    "गो ल": "गोल",
    "ो र": "ोर",
    "सरा य": "सराय",
    "म ंड": "मंड",
    "कुमा ऊँ": "कुमाऊँ",
    "मुख ्य": "मुख्य",
    "r e": "re",
    "w w": "ww",
    "ना थ": "नाथ",
    "यु क्त": "युक्त",
    "Th e": "The",
    "C h": "Ch",
    "ध ार": "धार",
    "4 5": "45",
    "a b": "ab",
    "संस् कृ": "संस्कृ",
    "ब ढ़": "बढ़",
    "प ै": "पै",
    "म ण्डल": "मण्डल",
    "ज्ञ ान": "ज्ञान",
    "ं ज": "ंज",
    "ग ी": "गी",
    "सिं ह": "सिंह",
    "Ind ia": "India",
    "क्ष ि": "क्षि",
    ") ,": "),",
    "निर्देशांक :": "निर्देशांक:",
    "हि न्दी": "हिन्दी",
    "ग ि": "गि",
    "फ ्": "फ्",
    "बा हरी": "बाहरी",
    "इतिहा स": "इतिहास",
    "वे ब": "वेब",
    "ल :": "ल:",
    "दे हरादून": "देहरादून",
    "i g": "ig",
    "व ह": "वह",
    "जा ल": "जाल",
    "o v": "ov",
    "ख ्या": "ख्या",
    "हु आ": "हुआ",
    "अ र": "अर",
    "विधान सभा": "विधानसभा",
    "द क्षि": "दक्षि",
    "9 0": "90",
    "अप ने": "अपने",
    "पुर स्": "पुरस्",
    "मध ्य": "मध्य",
    "भ ो": "भो",
    "ट ू": "टू",
    "वर् ष": "वर्ष",
    "पूर् ण": "पूर्ण",
    "दे खें": "देखें",
    "ल ख": "लख",
    "त ो": "तो",
    "4 3": "43",
    "ौ ली": "ौली",
    "परिष द": "परिषद",
    "ष य": "षय",
    "अ म": "अम",
    "कड़ियाँ [संपादित": "कड़ियाँ[संपादित",
    "त ह": "तह",
    "क ू": "कू",
    "पुरस् कार": "पुरस्कार",
    "दे व": "देव",
    "अ न्य": "अन्य",
    "म पुर": "मपुर",
    "3 3": "33",
    "इन् हें": "इन्हें",
    "पश्चि म": "पश्चिम",
    "ध ा": "धा",
    "em b": "emb",
    "4 7": "47",
    "क म": "कम",
    "5 6": "56",
    "सम्ब न्ध": "सम्बन्ध",
    "दि ल्ली": "दिल्ली",
    "ग े": "गे",
    "a c": "ac",
    "स ब": "सब",
    "हा व": "हाव",
    "लै ंड": "लैंड",
    "में ).": "में).",
    "0 6": "06",
    "बढ़ ाने": "बढ़ाने",
    "u m": "um",
    "म ंत्री": "मंत्री",
    "S t": "St",
    "हाव ड़ा": "हावड़ा",
    "ग त": "गत",
    "देखें [संपादित": "देखें[संपादित",
    "ब ना": "बना",
    "9 78": "978",
    "ग ू": "गू",
    "१ ९": "१९",
    "कि सी": "किसी",
    "उ र्": "उर्",
    "er s": "ers",
    "स् वा": "स्वा",
    "9 3": "93",
    "ख ु": "खु",
    "D a": "Da",
    "19 8": "198",
    "ज ब": "जब",
    ". .": "..",
    "स द": "सद",
    "ला ई": "लाई",
    "उन् होंने": "उन्होंने",
    "ट ो": "टो",
    "ंग ल": "ंगल",
    "( यू": "(यू",
    "a p": "ap",
    "फिल् म": "फिल्म",
    "हैं ,": "हैं,",
    "ल न": "लन",
    "क ला": "कला",
    "त था": "तथा",
    "ख ो": "खो",
    "गढ़ वाल": "गढ़वाल",
    "विश्व सनीय": "विश्वसनीय",
    "a h": "ah",
    "S un": "Sun",
    "वि षय": "विषय",
    "o p": "op",
    "oo d": "ood",
    "इ ट": "इट",
    "° N": "°N",
    "4 6": "46",
    "च न": "चन",
    "अ थ": "अथ",
    "20 20": "2020",
    "टी सी": "टीसी",
    "° E﻿": "°E﻿",
    "ं बर": "ंबर",
    "में ,": "में,",
    "सं ख्या": "संख्या",
    "व ल": "वल",
    "प ति": "पति",
    "is h": "ish",
    "हो ता": "होता",
    "वी प": "वीप",
    "न ग": "नग",
    "t er": "ter",
    "तह सी": "तहसी",
    "मार् च": "मार्च",
    "ृ त": "ृत",
    "भू गोल": "भूगोल",
    "t o": "to",
    "रा य": "राय",
    "f or": "for",
    "वे श": "वेश",
    "म ंदि": "मंदि",
    "(यू टीसी": "(यूटीसी",
    "(यूटीसी +": "(यूटीसी+",
    "it y": "ity",
    "ज रा": "जरा",
    "4 9": "49",
    "म ई": "मई",
    "अ ग": "अग",
    "शा ह": "शाह",
    "7 7": "77",
    "अथ वा": "अथवा",
    "मंदि र": "मंदिर",
    "s ,": "s,",
    "- W": "-W",
    "पृ ष्ठ": "पृष्ठ",
    "वं श": "वंश",
    "ध र्": "धर्",
    "दक्षि ण": "दक्षिण",
    "॰ ऍ": "॰ऍ",
    "( P": "(P",
    "म ण": "मण",
    "ग ंगा": "गंगा",
    "भाषा एँ": "भाषाएँ",
    "ल क": "लक",
    "र ह": "रह",
    "सित ंबर": "सितंबर",
    "प्र का": "प्रका",
    "सा मग्री": "सामग्री",
    "o w": "ow",
    "भाग लपुर": "भागलपुर",
    "Da -W": "Da-W",
    "Da-W en": "Da-Wen",
    "कर ता": "करता",
    "कर ण": "करण",
    "प द": "पद",
    "द् वीप": "द्वीप",
    "प्र वेश": "प्रवेश",
    "o ur": "our",
    "n g": "ng",
    "तहसी ल": "तहसील",
    ". in": ".in",
    "जी वन": "जीवन",
    "c e": "ce",
    "in e": "ine",
    "प्र मुख": "प्रमुख",
    "सं ब": "संब",
    "ै ल": "ैल",
    "च ौ": "चौ",
    "a k": "ak",
    "र त": "रत",
    "का शी": "काशी",
    "u b": "ub",
    "o g": "og",
    "प्र ौ": "प्रौ",
    "सु धार": "सुधार",
    "य ी": "यी",
    "पार् टी": "पार्टी",
    "ation al": "ational",
    "मे र": "मेर",
    "य त": "यत",
    "ंगल ौर": "ंगलौर",
    "A n": "An",
    "a ,": "a,",
    "e v": "ev",
    "I S": "IS",
    "ग ई": "गई",
    "A r": "Ar",
    "भ ग": "भग",
    "सब से": "सबसे",
    "हु ए": "हुए",
    "ं ब": "ंब",
    "7 6": "76",
    "आ गरा": "आगरा",
    "F ood": "Food",
    "३ ०": "३०",
    "कि न": "किन",
    "प्रौ द्योगिकी": "प्रौद्योगिकी",
    "फ ल": "फल",
    "य म": "यम",
    "से वा": "सेवा",
    "ध न": "धन",
    "e w": "ew",
    "द ल": "दल",
    "को ड": "कोड",
    "झ ा": "झा",
    "हि मा": "हिमा",
    "न ै": "नै",
    "वि ज्ञान": "विज्ञान",
    "ठ ा": "ठा",
    "7 3": "73",
    "य श": "यश",
    "उ त्": "उत्",
    "हो ने": "होने",
    "पह ले": "पहले",
    "उन् हें": "उन्हें",
    "u d": "ud",
    "य क": "यक",
    "ल ू": "लू",
    "4 4": "44",
    "19 6": "196",
    "प्र या": "प्रया",
    "वर् त": "वर्त",
    "र पुर": "रपुर",
    "in d": "ind",
    "आ र": "आर",
    "म क": "मक",
    "प न": "पन",
    "जु लाई": "जुलाई",
    "नग ला": "नगला",
    "टि श": "टिश",
    "को ट": "कोट",
    "मार् ग": "मार्ग",
    "निर् वा": "निर्वा",
    "अप्र ैल": "अप्रैल",
    "ण िक": "णिक",
    "ब्रि टिश": "ब्रिटिश",
    "न न्द": "नन्द",
    "न ऊ": "नऊ",
    "ज म्": "जम्",
    "ब ै": "बै",
    "जाल स्थ": "जालस्थ",
    "हरि द्वार": "हरिद्वार",
    "च् च": "च्च",
    "( J": "(J",
    "क ई": "कई",
    "ए न": "एन",
    "ट क": "टक",
    "o t": "ot",
    "बहु त": "बहुत",
    "राज वंश": "राजवंश",
    "च् छ": "च्छ",
    "सक ता": "सकता",
    "अ क्": "अक्",
    "ट ल": "टल",
    "वर् ण": "वर्ण",
    "सा इट": "साइट",
    "ब ल": "बल",
    "B N": "BN",
    "रेल वे": "रेलवे",
    "प ौ": "पौ",
    "समा चार": "समाचार",
    "5 9": "59",
    "ति रु": "तिरु",
    "न र": "नर",
    "ता ल": "ताल",
    "लख नऊ": "लखनऊ",
    "ar y": "ary",
    "अव ध": "अवध",
    "स ह": "सह",
    "जम् मू": "जम्मू",
    "धर् म": "धर्म",
    "निर् मा": "निर्मा",
    "ड ु": "डु",
    "IS BN": "ISBN",
    "क ं": "कं",
    "भ ु": "भु",
    "अल ंकार": "अलंकार",
    "एस टी": "एसटी",
    "( एँ": "(एँ",
    "(एँ )": "(एँ)",
    "ब ॉ": "बॉ",
    "का म": "काम",
    "o d": "od",
    "सा ं": "सां",
    "l y": "ly",
    "ॉ र्": "ॉर्",
    "e p": "ep",
    "ज ून": "जून",
    "आ ंध": "आंध",
    "कु छ": "कुछ",
    "C om": "Com",
    "20 21": "2021",
    "सं युक्त": "संयुक्त",
    "बा ग": "बाग",
    "A s": "As",
    "e g": "eg",
    "ं स": "ंस",
    "भाषा (एँ)": "भाषा(एँ)",
    "छ ो": "छो",
    "लो ग": "लोग",
    "8 0": "80",
    "लि ंक": "लिंक",
    "ग ए": "गए",
    "म् बर": "म्बर",
    "1 .": "1.",
    "आ न्ध": "आन्ध",
    "आन्ध ्र": "आन्ध्र",
    "o s": "os",
    "u p": "up",
    "५ :": "५:",
    "प्र भा": "प्रभा",
    "वि द्": "विद्",
    "ड़ े": "ड़े",
    "च ै": "चै",
    "ची न": "चीन",
    "u g": "ug",
    "र ण": "रण",
    "थ ु": "थु",
    "ग ण": "गण",
    "आई एसटी": "आईएसटी",
    "ww w": "www",
    "ने ट": "नेट",
    "फ ी": "फी",
    "त मिल": "तमिल",
    "आ म": "आम",
    "वेब साइट": "वेबसाइट",
    "आंध ्र": "आंध्र",
    "वारा ण": "वाराण",
    "वाराण सी": "वाराणसी",
    "l ish": "lish",
    "(यूटीसी+ ५:": "(यूटीसी+५:",
    "३० )": "३०)",
    "www .": "www.",
    "राजनी ति": "राजनीति",
    "नन्द न": "नन्दन",
    "शे ष": "शेष",
    "ू र": "ूर",
    "5 3": "53",
    "2017 )": "2017)",
    "ज ग": "जग",
    "ख ़": "ख़",
    "ख ंड": "खंड",
    "उन के": "उनके",
    "8 6": "86",
    "दर भ": "दरभ",
    "दरभ ंगा": "दरभंगा",
    "सं घ": "संघ",
    "यश वंत": "यशवंत",
    "यशवंत पुर": "यशवंतपुर",
    "दि संबर": "दिसंबर",
    "ज हा": "जहा",
    "पा कि": "पाकि",
    "स्वा मी": "स्वामी",
    "मंड ल:": "मंडल:",
    "(यूटीसी+५: ३०)": "(यूटीसी+५:३०)",
    "राज धानी": "राजधानी",
    "लि ये": "लिये",
    "″ N": "″N",
    "″ E﻿": "″E﻿",
    "फ़ ि": "फ़ि",
    "जा ती": "जाती",
    "म ौ": "मौ",
    "अ ंतर्राष्ट्रीय": "अंतर्राष्ट्रीय",
    "r i": "ri",
    "उप योग": "उपयोग",
    "ब ंगा": "बंगा",
    "ब ंगलौर": "बंगलौर",
    "गोर ख": "गोरख",
    "ल ॉ": "लॉ",
    "निर्वा चन": "निर्वाचन",
    "गु जरा": "गुजरा",
    "ख ि": "खि",
    "ला ल": "लाल",
    "सी ता": "सीता",
    "अ न": "अन",
    "8 5": "85",
    "( जनवरी": "(जनवरी",
    "न ,": "न,",
    "2 .": "2.",
    "अ ह": "अह",
    "ज ल": "जल",
    "क ौ": "कौ",
    "म् भ": "म्भ",
    "R )": "R)",
    "ने ता": "नेता",
    "c om": "com",
    "हु ई": "हुई",
    "च र्": "चर्",
    "भू मि": "भूमि",
    "उ ल्": "उल्",
    "स्था पित": "स्थापित",
    "मु ंगे": "मुंगे",
    "E ng": "Eng",
    "का ंग्रेस": "कांग्रेस",
    "थ म": "थम",
    "भो ज": "भोज",
    "ल् स": "ल्स",
    "पंजा ब": "पंजाब",
    "डी ह": "डीह",
    "7 5": "75",
    "सा हित्य": "साहित्य",
    "सम्बन्ध ित": "सम्बन्धित",
    "अ ख": "अख",
    "ग ल": "गल",
    "मुंगे र": "मुंगेर",
    "Sun ,": "Sun,",
    "जालस्थ ल:": "जालस्थल:",
    "g ov": "gov",
    "नाराय ण": "नारायण",
    "S T": "ST",
    "आ व": "आव",
    "भि न्न": "भिन्न",
    "स पुर": "सपुर",
    "ह म्": "हम्",
    "7 9": "79",
    "(P D": "(PD",
    "पर्य टन": "पर्यटन",
    "प्रा प्त": "प्राप्त",
    "ना टक": "नाटक",
    "अनु सार": "अनुसार",
    "' s": "'s",
    "3 4": "34",
    "वा ई": "वाई",
    "श हर": "शहर",
    "वि ल": "विल",
    "ख ी": "खी",
    "अक् टू": "अक्टू",
    "अक्टू बर": "अक्टूबर",
    "पाकि स्तान": "पाकिस्तान",
    "पट् टी": "पट्टी",
    "उ च्च": "उच्च",
    "किता बें": "किताबें",
    "विद् वान": "विद्वान",
    "म त": "मत",
    "1 -": "1-",
    "Ar ch": "Arch",
    "ह टा": "हटा",
    "2016 .": "2016.",
    "छ ा": "छा",
    "क् स": "क्स",
    "म र": "मर",
    "अग स्त": "अगस्त",
    "यु द्ध": "युद्ध",
    "त् व": "त्व",
    "ज़ि ले": "ज़िले",
    "स् वत": "स्वत",
    "उ द्यान": "उद्यान",
    "प्रवेश द्वार": "प्रवेशद्वार",
    "ST O": "STO",
    "il l": "ill",
    "हो ते": "होते",
    "ल ग": "लग",
    "n al": "nal",
    "उल् लेख": "उल्लेख",
    "अ ड": "अड",
    "व ो": "वो",
    "ब त": "बत",
    "श ो": "शो",
    "य ल": "यल",
    "(PD F": "(PDF",
    "स् कू": "स्कू",
    "अख बार": "अखबार",
    "चु ना": "चुना",
    "वी ं": "वीं",
    "S h": "Sh",
    "8 8": "88",
    "म शी": "मशी",
    "न ौ": "नौ",
    "समू ह": "समूह",
    "ंब ई": "ंबई",
    "इ ल": "इल",
    "सद स्य": "सदस्य",
    "ू ँ": "ूँ",
    "क ह": "कह",
    "बा ंग्": "बांग्",
    "उ से": "उसे",
    "M ar": "Mar",
    "घ र": "घर",
    "7 4": "74",
    "गुजरा त": "गुजरात",
    "6 6": "66",
    "गोरख पुर": "गोरखपुर",
    "2014 .": "2014.",
    "ओ वर": "ओवर",
    "नै नी": "नैनी",
    "नैनी ताल": "नैनीताल",
    "खो जें": "खोजें",
    "खोजें :": "खोजें:",
    "(J STO": "(JSTO",
    "(JSTO R)": "(JSTOR)",
    "ति लक": "तिलक",
    "महि ला": "महिला",
    "ऑ फ": "ऑफ",
    "आव श्यक": "आवश्यक",
    "ं च": "ंच",
    "मु ंबई": "मुंबई",
    "प क": "पक",
    "सू ची": "सूची",
    "W A": "WA",
    "स्कू ल": "स्कूल",
    "रा ष्ट्र": "राष्ट्र",
    "छ त्ती": "छत्ती",
    "छत्ती स": "छत्तीस",
    "वर्त मान": "वर्तमान",
    "हि ंदी": "हिंदी",
    "उन की": "उनकी",
    "पु ण": "पुण",
    "द पुर": "दपुर",
    "मु ज": "मुज",
    "वे ली": "वेली",
    "ना डा": "नाडा",
    "२०१ ५": "२०१५",
    "हिन्दी ,": "हिन्दी,",
    "म् स": "म्स",
    "ले किन": "लेकिन",
    "3 .": "3.",
    "o c": "oc",
    "Arch iv": "Archiv",
    "our nal": "ournal",
    "शा मिल": "शामिल",
    "ब स": "बस",
    "मण ि": "मणि",
    "I s": "Is",
    "२० ०": "२००",
    "कृ ष": "कृष",
    "प्र शा": "प्रशा",
    "ड़ की": "ड़की",
    "m ent": "ment",
    "छत्तीस गढ़": "छत्तीसगढ़",
    "ल म": "लम",
    "फ़ि ल्": "फ़िल्",
    "b y": "by",
    "वि शेष": "विशेष",
    "बी च": "बीच",
    "ह वाई": "हवाई",
    "सु पर": "सुपर",
    "oo k": "ook",
    "T e": "Te",
    "गु णा": "गुणा",
    "ड ॉ": "डॉ",
    "राज स्थान": "राजस्थान",
    "f f": "ff",
    "ब न": "बन",
    "200 7": "2007",
    "व ृ": "वृ",
    "र् द": "र्द",
    "वा हा": "वाहा",
    "द य": "दय",
    "ंड ो": "ंडो",
    "विका स": "विकास",
    "यो जना": "योजना",
    "U n": "Un",
    "u al": "ual",
    "क्रिके ट": "क्रिकेट",
    "ल् ला": "ल्ला",
    "आ न्दो": "आन्दो",
    "आन्दो लन": "आन्दोलन",
    "प्र थम": "प्रथम",
    "त् मक": "त्मक",
    "जन संख्या": "जनसंख्या",
    "से ना": "सेना",
    "कर् नाटक": "कर्नाटक",
    "7 2": "72",
    "डे ल्": "डेल्",
    "द् दी": "द्दी",
    "फ ु": "फु",
    "वा यु": "वायु",
    "श ैली": "शैली",
    "ag e": "age",
    "परि वार": "परिवार",
    "वि भिन्न": "विभिन्न",
    "र ल": "रल",
    "प्र खण्ड": "प्रखण्ड",
    "वि भाग": "विभाग",
    "भू भाग": "भूभाग",
    "मुज फ्": "मुजफ्",
    "मी र": "मीर",
    "गु वाहा": "गुवाहा",
    "गुवाहा टी": "गुवाहाटी",
    "ते ह": "तेह",
    "i p": "ip",
    ". gov": ".gov",
    "स्रोतही न": "स्रोतहीन",
    "5 5": "55",
    "मंड ल": "मंडल",
    "ब ू": "बू",
    "उ स": "उस",
    "u ary": "uary",
    "Archiv ed": "Archived",
    "आवश्यक ता": "आवश्यकता",
    "श री": "शरी",
    "मि न": "मिन",
    "पूर्ण िया": "पूर्णिया",
    "मुजफ् फरपुर": "मुजफ्फरपुर",
    "यहा ँ": "यहाँ",
    "शन ल": "शनल",
    "कु म्भ": "कुम्भ",
    "सि द्ध": "सिद्ध",
    "बे ह": "बेह",
    "Com p": "Comp",
    "हो ती": "होती",
    "सित म्बर": "सितम्बर",
    "प्र दर्": "प्रदर्",
    "है दरा": "हैदरा",
    "हैदरा बाद": "हैदराबाद",
    "स्थ ल": "स्थल",
    "पुण े": "पुणे",
    "ज़ ा": "ज़ा",
    "( S": "(S",
    "टी म": "टीम",
    ".gov .in": ".gov.in",
    "लोक सभा": "लोकसभा",
    "गु रु": "गुरु",
    "वा ह": "वाह",
    "पृ ॰": "पृ॰",
    "ar t": "art",
    "ख र": "खर",
    "था ,": "था,",
    "क श्": "कश्",
    "झार खण्ड": "झारखण्ड",
    "ic al": "ical",
    "फ ो": "फो",
    "च मो": "चमो",
    "चमो ली": "चमोली",
    "च म्": "चम्",
    "रु ड़की": "रुड़की",
    "धा म": "धाम",
    "के दार": "केदार",
    "सम्बन्ध ी": "सम्बन्धी",
    "प्र दान": "प्रदान",
    "o un": "oun",
    "ए म": "एम",
    "चुना व": "चुनाव",
    "संगी त": "संगीत",
    "स ॰": "स॰",
    "s e": "se",
    "ul t": "ult",
    "वेबै क": "वेबैक",
    "परि च": "परिच",
    "स भी": "सभी",
    "J ournal": "Journal",
    "र ॉ": "रॉ",
    "बंगा ल": "बंगाल",
    "सा गर": "सागर",
    "डेल् ही": "डेल्ही",
    "ना गर": "नागर",
    ", 00": ",00",
    "a w": "aw",
    "u ,": "u,",
    "व्य व": "व्यव",
    "कृष ि": "कृषि",
    "हे म": "हेम",
    "आ दि": "आदि",
    "न व": "नव",
    "ठ ी": "ठी",
    "पह ली": "पहली",
    "आई ॰ऍ": "आई॰ऍ",
    "आई॰ऍ स॰": "आई॰ऍस॰",
    "आई॰ऍस॰ बी": "आई॰ऍस॰बी",
    "आई॰ऍस॰बी ॰ऍ": "आई॰ऍस॰बी॰ऍ",
    "आई॰ऍस॰बी॰ऍ न": "आई॰ऍस॰बी॰ऍन",
    "आई॰ऍस॰बी॰ऍन ॰": "आई॰ऍस॰बी॰ऍन॰",
    "ओ र": "ओर",
    "पा स": "पास",
    "गू सराय": "गूसराय",
    "G u": "Gu",
    "y ,": "y,",
    "को विल": "कोविल",
    "क ़": "क़",
    "ter n": "tern",
    "a v": "av",
    "P l": "Pl",
    "ol og": "olog",
    "सें ट": "सेंट",
    "२०१५ .": "२०१५.",
    "( निर्देशांक": "(निर्देशांक",
    "ढ ूँ": "ढूँ",
    "ढूँ ढ": "ढूँढ",
    "ढूँढ ें": "ढूँढें",
    "ढूँढें )": "ढूँढें)",
    "कम् प": "कम्प",
    "- सम्बन्धी": "-सम्बन्धी",
    "ig h": "igh",
    "ct ion": "ction",
    ".. .": "...",
    "3 1": "31",
    "स् वी": "स्वी",
    "ग ै": "गै",
    "प्रा चीन": "प्राचीन",
    "5 8": "58",
    "4 2": "42",
    "D e": "De",
    "w ith": "with",
    "iv e": "ive",
    "भू कम्प": "भूकम्प",
    "उत्तर काशी": "उत्तरकाशी",
    "बहु गुणा": "बहुगुणा",
    "श ब्": "शब्",
    ". com": ".com",
    "जि से": "जिसे",
    "Z h": "Zh",
    "प्रका शित": "प्रकाशित",
    "लग भग": "लगभग",
    "य दि": "यदि",
    "जि समें": "जिसमें",
    "संब ंध": "संबंध",
    "ढ़ ी": "ढ़ी",
    "पु त्र": "पुत्र",
    "ए र": "एर",
    "जय पुर": "जयपुर",
    "नागर कोविल": "नागरकोविल",
    "मै च": "मैच",
    "उर् फ": "उर्फ",
    "को श": "कोश",
    "a j": "aj",
    "ए ल": "एल",
    "शा ली": "शाली",
    "शि व": "शिव",
    "कि म": "किम",
    "बे गूसराय": "बेगूसराय",
    "क ल": "कल",
    "es h": "esh",
    "घ टना": "घटना",
    "S c": "Sc",
    "कर ना": "करना",
    "ज ू": "जू",
    "पर् वत": "पर्वत",
    "कश् मीर": "कश्मीर",
    "ने शनल": "नेशनल",
    "A l": "Al",
    "N ew": "New",
    "स त": "सत",
    "ना ग": "नाग",
    "अम ृत": "अमृत",
    "emb er": "ember",
    "शु रू": "शुरू",
    "al l": "all",
    "- १": "-१",
    "ओवर )": "ओवर)",
    "राजधानी :": "राजधानी:",
    "मु क्त": "मुक्त",
    "गाँव -सम्बन्धी": "गाँव-सम्बन्धी",
    "at e": "ate",
    "निर्मा ण": "निर्माण",
    "रु आ": "रुआ",
    "मु रादा": "मुरादा",
    "मुरादा बाद": "मुरादाबाद",
    "ब ह": "बह",
    "ध ि": "धि",
    "अ सम": "असम",
    "ए ं": "एं",
    "पै सेंज": "पैसेंज",
    "पैसेंज र": "पैसेंजर",
    "र न": "रन",
    "ौ ला": "ौला",
    "सिकंदरा बाद": "सिकंदराबाद",
    "जन ता": "जनता",
    "ए शिया": "एशिया",
    "i es": "ies",
    "(PDF ).": "(PDF).",
    "सा म्राज्य": "साम्राज्य",
    "( B": "(B",
    "बांग् लादेश": "बांग्लादेश",
    "पोर् टल": "पोर्टल",
    "ज पा": "जपा",
    "4 1": "41",
    "तिहा सिक": "तिहासिक",
    "ली ग": "लीग",
    "बेह तर": "बेहतर",
    "i z": "iz",
    "लै ण्ड": "लैण्ड",
    "हिमा चल": "हिमाचल",
    "इंद ौर": "इंदौर",
    "u e": "ue",
    "फ तेह": "फतेह",
    "C on": "Con",
    "20 22": "2022",
    "आ इ": "आइ",
    "खु र्द": "खुर्द",
    "p p": "pp",
    "I C": "IC",
    "अन्तर् गत": "अन्तर्गत",
    "भा जपा": "भाजपा",
    "फ ू": "फू",
    "ध ी": "धी",
    "C .": "C.",
    "मा ल": "माल",
    "जै से": "जैसे",
    "स ,": "स,",
    "ठ न": "ठन",
    "अ ज": "अज",
    "3 6": "36",
    "अरु णा": "अरुणा",
    "5 7": "57",
    "जा पुर": "जापुर",
    "क ,": "क,",
    "a i": "ai",
    "ए फ": "एफ",
    "ध ्या": "ध्या",
    "उप युक्त": "उपयुक्त",
    "फ़िल् म": "फ़िल्म",
    "शु रुआ": "शुरुआ",
    "ख ्": "ख्",
    "प्र योग": "प्रयोग",
    "जि न": "जिन",
    "च ं": "चं",
    "ते ल": "तेल",
    "8 7": "87",
    "र ै": "रै",
    "भा वना": "भावना",
    "विके ट": "विकेट",
    "S A": "SA",
    "उल्लेख नीयता": "उल्लेखनीयता",
    "अर् थ": "अर्थ",
    "- २": "-२",
    "आन्ध्र प्रदेश": "आन्ध्रप्रदेश",
    "W I": "WI",
    "बागे श्वर": "बागेश्वर",
    "म ंत्रा": "मंत्रा",
    "भोज पुरी": "भोजपुरी",
    "ड ो": "डो",
    "s h": "sh",
    "c on": "con",
    "डे टा": "डेटा",
    "त ौर": "तौर",
    "त न": "तन",
    "मा ँ": "माँ",
    "ए -": "ए-",
    "क टि": "कटि",
    "हरिया णा": "हरियाणा",
    "2011 )": "2011)",
    "प ॉ": "पॉ",
    "an ,": "an,",
    "फ़ र": "फ़र",
    "फ़ ा": "फ़ा",
    "ub lish": "ublish",
    "20 24": "2024",
    "In tern": "Intern",
    "e ct": "ect",
    "ar k": "ark",
    "खा स": "खास",
    "% )": "%)",
    "ति वारी": "तिवारी",
    "हि न्दू": "हिन्दू",
    "मंत्रा लय": "मंत्रालय",
    "ले ज": "लेज",
    "स ौ": "सौ",
    "e b": "eb",
    "घ ो": "घो",
    "भ ौ": "भौ",
    "कटि हार": "कटिहार",
    "दाना पुर": "दानापुर",
    "9 7": "97",
    "200 8": "2008",
    "i b": "ib",
    "u k": "uk",
    "मदा बाद": "मदाबाद",
    "म थु": "मथु",
    "5 1": "51",
    "5 2": "52",
    "भ े": "भे",
    "Eng ine": "Engine",
    "l d": "ld",
    "W M": "WM",
    "W B": "WB",
    "पद क": "पदक",
    "3 5": "35",
    "ar d": "ard",
    "इस से": "इससे",
    "हे तु": "हेतु",
    "स फल": "सफल",
    "सा ल": "साल",
    "सिक् किम": "सिक्किम",
    "या त": "यात",
    "पु दु": "पुदु",
    "ण ्": "ण्",
    "ट् स": "ट्स",
    "आ ज": "आज",
    "W or": "Wor",
    "o b": "ob",
    ". 0": ".0",
    "ल् तानपुर": "ल्तानपुर",
    "Intern ational": "International",
    "9 )": "9)",
    "यमु ना": "यमुना",
    "ह ल्": "हल्",
    "ती र्": "तीर्",
    "r y": "ry",
    "गा ं": "गां",
    "स्था पना": "स्थापना",
    "ऐ तिहासिक": "ऐतिहासिक",
    "ब ड़ी": "बड़ी",
    "el l": "ell",
    "Mar ch": "March",
    "i f": "if",
    "पुरु ष": "पुरुष",
    "दु र्": "दुर्",
    "3 8": "38",
    "d e": "de",
    "वा ँ": "वाँ",
    "१ ०": "१०",
    "संग्रहा लय": "संग्रहालय",
    "L .": "L.",
    "वि ंडो": "विंडो",
    "सं हार": "संहार",
    "प्रशा सनिक": "प्रशासनिक",
    "P radesh": "Pradesh",
    "क्ष ण": "क्षण",
    "किया ,": "किया,",
    "स से": "ससे",
    "9 6": "96",
    "J .": "J.",
    "मशी न": "मशीन",
    "परि णा": "परिणा",
    "ग ौ": "गौ",
    "- ए-": "-ए-",
    "ध ्": "ध्",
    "ला इन": "लाइन",
    "फ़र वरी": "फ़रवरी",
    "मथु रा": "मथुरा",
    "अमृत सर": "अमृतसर",
    "9 4": "94",
    "न ई": "नई",
    "आ यु": "आयु",
    "ह ्": "ह्",
    "L on": "Lon",
    "e e": "ee",
    "मो हम्": "मोहम्",
    "2019 .": "2019.",
    "स् कोर": "स्कोर",
    "C ric": "Cric",
    "स् व": "स्व",
    "परि योजना": "परियोजना",
    "( M": "(M",
    "पौ ड़ी": "पौड़ी",
    "अल् मो": "अल्मो",
    "गो वि": "गोवि",
    "ल भ": "लभ",
    "र ,": "र,",
    "इ ड": "इड",
    "ला म": "लाम",
    "25 .": "25.",
    "ह ता": "हता",
    "पंचा यत": "पंचायत",
    "अरुणा चल": "अरुणाचल",
    "द् दा": "द्दा",
    "अह मदाबाद": "अहमदाबाद",
    "एरना कुलम": "एरनाकुलम",
    ",00 0": ",000",
    "म ॉ": "मॉ",
    "Y .": "Y.",
    "अल्मो ड़ा": "अल्मोड़ा",
    "पि थ": "पिथ",
    "पहा ड़ी": "पहाड़ी",
    "ज्ञान कोश": "ज्ञानकोश",
    "श र्": "शर्",
    "5 :": "5:",
    "टी वी": "टीवी",
    "ट ै": "टै",
    "अक्त ू": "अक्तू",
    "अक्तू बर": "अक्तूबर",
    "चर् चा": "चर्चा",
    "न यी": "नयी",
    "जि सका": "जिसका",
    "त म": "तम",
    "प्रका श": "प्रकाश",
    "ं ट": "ंट",
    "अज मेर": "अजमेर",
    "ं ख": "ंख",
    "के रल": "केरल",
    "म ढ़ी": "मढ़ी",
    "सो नपुर": "सोनपुर",
    "मग ध": "मगध",
    "अड ्डा": "अड्डा",
    "ना डु": "नाडु",
    "ध ु": "धु",
    "an t": "ant",
    "ध र": "धर",
    "स्टे शन": "स्टेशन",
    "जी ता": "जीता",
    "P rocess": "Process",
    "- -": "--",
    "खे त": "खेत",
    "बाद ,": "बाद,",
    "अ ब": "अब",
    "बा ँ": "बाँ",
    "ज र्": "जर्",
    "सीता मढ़ी": "सीतामढ़ी",
    "चं पारण": "चंपारण",
    "हवाई -": "हवाई-",
    "परिषद नगर": "परिषदनगर",
    "तेल ंगाना": "तेलंगाना",
    "प्र स्ता": "प्रस्ता",
    "न ृत्य": "नृत्य",
    "टर् मिन": "टर्मिन",
    "जा मा": "जामा",
    "बा जी": "बाजी",
    "क प": "कप",
    "फतेह पुर": "फतेहपुर",
    "ic s": "ics",
    "प त": "पत",
    "समा ज": "समाज",
    "ا ل": "ال",
    "( T": "(T",
    "semb ly": "sembly",
    "राज्य पाल": "राज्यपाल",
    "मु न": "मुन",
    "ग ंज": "गंज",
    "भा ई": "भाई",
    "अ ति": "अति",
    "द ृ": "दृ",
    "P ress": "Press",
    "a u": "au",
    "ण ु": "णु",
    "ती न": "तीन",
    "सांख्य िकी": "सांख्यिकी",
    "R e": "Re",
    "′ N": "′N",
    "′ E﻿": "′E﻿",
    "-0 3": "-03",
    "E x": "Ex",
    "फ े": "फे",
    "टर्मिन स": "टर्मिनस",
    "प्रया गराज": "प्रयागराज",
    "Pl an": "Plan",
    "व ॉ": "वॉ",
    "र ंग": "रंग",
    "गो स्वामी": "गोस्वामी",
    "राज मार्ग": "राजमार्ग",
    "ing ,": "ing,",
    "° 0": "°0",
    "घ ु": "घु",
    "आ यो": "आयो",
    "तु र्": "तुर्",
    "E l": "El",
    "जाल पृष्ठ": "जालपृष्ठ",
    "न दिया": "नदिया",
    "द त्त": "दत्त",
    "H ind": "Hind",
    "3 7": "37",
    "d h": "dh",
    "un e": "une",
    "as s": "ass",
    "अने क": "अनेक",
    "ौ न": "ौन",
    "अभि नेता": "अभिनेता",
    "प्रा ंत": "प्रांत",
    "ग ़": "ग़",
    "नि म्": "निम्",
    "ली ,": "ली,",
    "याता यात": "यातायात",
    "छ परा": "छपरा",
    "बी घा": "बीघा",
    "देवासं भारत": "देवासंभारत",
    "अर ब": "अरब",
    "200 3": "2003",
    "सि र": "सिर",
    "को लका": "कोलका",
    "त्रि वेंद्र": "त्रिवेंद्र",
    "त्रिवेंद्र म": "त्रिवेंद्रम",
    "S o": "So",
    "( मदद": "(मदद",
    "(मदद )": "(मदद)",
    "वि जे": "विजे",
    "् स": "्स",
    "२ १": "२१",
    "M e": "Me",
    "टा इ": "टाइ",
    "अ यो": "अयो",
    "अयो ध्या": "अयोध्या",
    "झ ी": "झी",
    "क्र म": "क्रम",
    "सं र": "संर",
    "नर संहार": "नरसंहार",
    "चम् पा": "चम्पा",
    "चम्पा वत": "चम्पावत",
    "संस् करण": "संस्करण",
    "थ ो": "थो",
    "मो ती": "मोती",
    "ं श": "ंश",
    "ख ने": "खने",
    "अ च्छ": "अच्छ",
    "मे घा": "मेघा",
    "मेघा लय": "मेघालय",
    "ंख ला": "ंखला",
    "दर् श": "दर्श",
    "मणि पुर": "मणिपुर",
    "म् ब": "म्ब",
    "3 2": "32",
    "फ ै": "फै",
    "i k": "ik",
    "A m": "Am",
    "अ काद": "अकाद",
    "शी र्": "शीर्",
    "Un ivers": "Univers",
    "77 .": "77.",
    "i en": "ien",
    "दि सम्बर": "दिसम्बर",
    "a )": "a)",
    "R o": "Ro",
    "g e": "ge",
    "2018 .": "2018.",
    "W R": "WR",
    "(अंग्रेज़ी )": "(अंग्रेज़ी)",
    "ऋ ष": "ऋष",
    "छो टा": "छोटा",
    "म ल": "मल",
    "कॉ लेज": "कॉलेज",
    "सा मान्य": "सामान्य",
    "न ल": "नल",
    "शुरुआ त": "शुरुआत",
    "द ौरान": "दौरान",
    "5 4": "54",
    "त ृती": "तृती",
    "तृती य": "तृतीय",
    "वि जय": "विजय",
    "फा स्ट": "फास्ट",
    "यहा ं": "यहां",
    "मह त्व": "महत्व",
    "गो वा": "गोवा",
    "i ,": "i,",
    "ध पुर": "धपुर",
    "घा ट": "घाट",
    "बी काने": "बीकाने",
    "बीकाने र": "बीकानेर",
    "कू ट": "कूट",
    "उ दय": "उदय",
    "खि ला": "खिला",
    ") :": "):",
    "विजे ता": "विजेता",
    "k et": "ket",
    "जी व": "जीव",
    "ल र": "लर",
    "जी पुर": "जीपुर",
    "ch n": "chn",
    "Zh eng": "Zheng",
    "टूर् नामेंट": "टूर्नामेंट",
    "शब् द": "शब्द",
    "र खा": "रखा",
    "वार् ता": "वार्ता",
    "प ल": "पल",
    "अ ंतर": "अंतर",
    "दु निया": "दुनिया",
    "भ र": "भर",
    "जी त": "जीत",
    "य स": "यस",
    "बना या": "बनाया",
    "इ या": "इया",
    "ग ड़िया": "गड़िया",
    "कोलका ता": "कोलकाता",
    "स् को": "स्को",
    "गो दा": "गोदा",
    "सै न": "सैन",
    ", \"": ",\"",
    "1 ,": "1,",
    "शीर् ष": "शीर्ष",
    "Lon ely": "Lonely",
    "Plan et": "Planet",
    "मै न": "मैन",
    "१ ५": "१५",
    "10 .": "10.",
    "Q ual": "Qual",
    "Te chn": "Techn",
    "Wor ld": "World",
    "o k": "ok",
    "N ational": "National",
    "क नाडा": "कनाडा",
    "कु र": "कुर",
    "विंडो ज़": "विंडोज़",
    "वि स्त": "विस्त",
    "विस्त ृत": "विस्तृत",
    "का ण्ड": "काण्ड",
    "नदिया ँ": "नदियाँ",
    "न्या या": "न्याया",
    "पिथ ौरा": "पिथौरा",
    "पिथौरा गढ़": "पिथौरागढ़",
    "रानी खेत": "रानीखेत",
    "का ंग": "कांग",
    "ब ड़े": "बड़े",
    "राष्ट्र पति": "राष्ट्रपति",
    "अति रिक्त": "अतिरिक्त",
    "गां व": "गांव",
    "आधु निक": "आधुनिक",
    "जि सके": "जिसके",
    "परिच य": "परिचय",
    "संब द्ध": "संबद्ध",
    "दो नों": "दोनों",
    "200 9": "2009",
    "निर्देश क": "निर्देशक",
    "अंग्रे जी": "अंग्रेजी",
    "के वल": "केवल",
    "ृ ंखला": "ृंखला",
    "मी टर": "मीटर",
    "कु ंड": "कुंड",
    "ओ डि": "ओडि",
    "उ द्योग": "उद्योग",
    "दि न": "दिन",
    "9 5": "95",
    "शा खा": "शाखा",
    "संग ठन": "संगठन",
    "( जन्म": "(जन्म",
    "e ar": "ear",
    "अकाद मी": "अकादमी",
    "लि स": "लिस",
    "2020 .": "2020.",
    "ic ation": "ication",
    "र वि": "रवि",
    "ट् ट": "ट्ट",
    "an k": "ank",
    "जा पान": "जापान",
    "र सू": "रसू",
    "ख़ ा": "ख़ा",
    "ज पुर": "जपुर",
    "मे ट्रो": "मेट्रो",
    "क क्ष": "कक्ष",
    "हिन्दी, संस्कृत": "हिन्दी,संस्कृत",
    "प्रया ग": "प्रयाग",
    "रा वत": "रावत",
    "पे शा": "पेशा",
    "प्र सिद्ध": "प्रसिद्ध",
    "30 )": "30)",
    ".com .": ".com.",
    "ज र": "जर",
    "सक ते": "सकते",
    "क् ल": "क्ल",
    "सो न": "सोन",
    "व ु": "वु",
    "उन का": "उनका",
    "दि खा": "दिखा",
    "जै न": "जैन",
    "ह ॉ": "हॉ",
    "जन सांख्यिकी": "जनसांख्यिकी",
    "आ दर्श": "आदर्श",
    "औरंगा बाद": "औरंगाबाद",
    "निको बार": "निकोबार",
    "पुदु च्चे": "पुदुच्चे",
    "पुदुच्चे री": "पुदुच्चेरी",
    "लक्ष द्वीप": "लक्षद्वीप",
    "ल द्दा": "लद्दा",
    "जो धपुर": "जोधपुर",
    "सुपर फास्ट": "सुपरफास्ट",
    "9 8": "98",
    "भु बने": "भुबने",
    "भुबने श्वर": "भुबनेश्वर",
    "पा त": "पात",
    "श्रे णी": "श्रेणी",
    "o h": "oh",
    "T im": "Tim",
    "A p": "Ap",
    "De cember": "December",
    "S an": "San",
    "ॉ न": "ॉन",
    "A .": "A.",
    "is m": "ism",
    "वर् ग": "वर्ग",
    "] .": "].",
    "pp .": "pp.",
    "o ,": "o,",
    "E S": "ES",
    "ut t": "utt",
    "पौरा णिक": "पौराणिक",
    "गुरु कुल": "गुरुकुल",
    "शा सन": "शासन",
    "विधा यक": "विधायक",
    "F or": "For",
    "डेटा बेस": "डेटाबेस",
    "ड़ ते": "ड़ते",
    "प्रा थमिक": "प्राथमिक",
    "ं भ": "ंभ",
    "श ता": "शता",
    "शता ब्": "शताब्",
    "शताब् दी": "शताब्दी",
    "जा ति": "जाति",
    "ख गड़िया": "खगड़िया",
    "बे ल": "बेल",
    "शे ख": "शेख",
    "ज़ ोर": "ज़ोर",
    "अ ण्ड": "अण्ड",
    "कह ते": "कहते",
    "ण्ड व": "ण्डव",
    "9 1": "91",
    "इंजी नि": "इंजीनि",
    "आई सी": "आईसी",
    "(2006 )": "(2006)",
    "\" P": "\"P",
    "-0 2": "-02",
    "द् विती": "द्विती",
    "P .": "P.",
    "2015 .": "2015.",
    "जहा ं": "जहां",
    "J an": "Jan",
    "p l": "pl",
    "खे ड़ा": "खेड़ा",
    "सि स्ट": "सिस्ट",
    "I m": "Im",
    "म ,": "म,",
    "ौ ल": "ौल",
    "द्दी नपुर": "द्दीनपुर",
    "जल वायु": "जलवायु",
    "शार दा": "शारदा",
    "सा हि": "साहि",
    "साहि ब": "साहिब",
    "न ंदा": "नंदा",
    "बे ट": "बेट",
    "कुमाऊँ नी": "कुमाऊँनी",
    "गोवि न्द": "गोविन्द",
    "दा स": "दास",
    "(यूटीसी+ 5:": "(यूटीसी+5:",
    "(यूटीसी+5: 30)": "(यूटीसी+5:30)",
    "f rom": "from",
    "श क्ति": "शक्ति",
    "फि र": "फिर",
    "a .": "a.",
    "ac k": "ack",
    "श ून्य": "शून्य",
    "उ द्धरण": "उद्धरण",
    "ष ण": "षण",
    "ला ह": "लाह",
    "उत् पाद": "उत्पाद",
    "त ब": "तब",
    "पु नर्": "पुनर्",
    "फर वरी": "फरवरी",
    "27 .": "27.",
    "ढ़ ा": "ढ़ा",
    "पुर -": "पुर-",
    "या ँ": "याँ",
    "तु हा": "तुहा",
    "द्वीप समूह": "द्वीपसमूह",
    "ह वेली": "हवेली",
    "प्रस्ता वित": "प्रस्तावित",
    "( 2011)": "(2011)",
    "मह ल": "महल",
    "एक्स प्रेस": "एक्सप्रेस",
    "बा ंद्रा": "बांद्रा",
    "का की": "काकी",
    "काकी नाडा": "काकीनाडा",
    "ला सपुर": "लासपुर",
    "बु ंदे": "बुंदे",
    "मा इ": "माइ",
    "तिरु पति": "तिरुपति",
    "सी मा": "सीमा",
    "सू चना": "सूचना",
    "अला वा": "अलावा",
    "जब कि": "जबकि",
    "इंग् लैंड": "इंग्लैंड",
    "न ंद": "नंद",
    "ब ड़ा": "बड़ा",
    "डी ओ": "डीओ",
    "i er": "ier",
    "ना ई": "नाई",
    "ला व": "लाव",
    "प्रामा णिक": "प्रामाणिक",
    "ग ंगो": "गंगो",
    "कॉर् बेट": "कॉर्बेट",
    "वल् लभ": "वल्लभ",
    "पे ट्रो": "पेट्रो",
    "20 23": "2023",
    "हा ला": "हाला",
    "जा ते": "जाते",
    "9 .": "9.",
    "c l": "cl",
    "A ug": "Aug",
    "Aug ust": "August",
    "जु ड़ते": "जुड़ते",
    "कोड :": "कोड:",
    "को ई": "कोई",
    "पा ठ": "पाठ",
    "द श": "दश",
    "मा ता": "माता",
    "ब ख्": "बख्",
    "नि जा": "निजा",
    "ओडि शा": "ओडिशा"
  },
  "merge_history": [
    {
      "step": 1,
      "pair": [
        "्",
        "र"
      ],
      "new_token": "्र",
      "frequency": 14012,
      "vocab_size": 60,
      "learned_vocab_size": 1,
      "compression_ratio": 1.0,
      "example_words": [
        "(अंग्रेज़ी)",
        "प्रामाणिक",
        "प्रभा"
      ]
    },
    {
      "step": 2,
      "pair": [
        "स",
        "्"
      ],
      "new_token": "स्",
      "frequency": 9178,
      "vocab_size": 61,
      "learned_vocab_size": 2,
      "compression_ratio": 1.015240672538727,
      "example_words": []
    },
    {
      "step": 3,
      "pair": [
        "ा",
        "र"
      ],
      "new_token": "ार",
      "frequency": 8063,
      "vocab_size": 62,
      "learned_vocab_size": 3,
      "compression_ratio": 1.025481184925088,
      "example_words": []
    },
    {
      "step": 4,
      "pair": [
        "प",
        "्र"
      ],
      "new_token": "प्र",
      "frequency": 7797,
      "vocab_size": 63,
      "learned_vocab_size": 4,
      "compression_ratio": 1.0346465840037777,
      "example_words": []
    },
    {
      "step": 5,
      "pair": [
        "क",
        "्"
      ],
      "new_token": "क्",
      "frequency": 7346,
      "vocab_size": 64,
      "learned_vocab_size": 5,
      "compression_ratio": 1.043666789289544,
      "example_words": []
    },
    {
      "step": 6,
      "pair": [
        "े",
        "ं"
      ],
      "new_token": "ें",
      "frequency": 6553,
      "vocab_size": 65,
      "learned_vocab_size": 6,
      "compression_ratio": 1.05231507422285,
      "example_words": []
    },
    {
      "step": 7,
      "pair": [
        "र",
        "ा"
      ],
      "new_token": "रा",
      "frequency": 6119,
      "vocab_size": 66,
      "learned_vocab_size": 7,
      "compression_ratio": 1.0601473357578841,
      "example_words": []
    },
    {
      "step": 8,
      "pair": [
        "य",
        "ा"
      ],
      "new_token": "या",
      "frequency": 5813,
      "vocab_size": 67,
      "learned_vocab_size": 8,
      "compression_ratio": 1.0676779970442494,
      "example_words": []
    },
    {
      "step": 9,
      "pair": [
        "प",
        "ु"
      ],
      "new_token": "पु",
      "frequency": 5055,
      "vocab_size": 68,
      "learned_vocab_size": 9,
      "compression_ratio": 1.0748421524157619,
      "example_words": []
    },
    {
      "step": 10,
      "pair": [
        "े",
        "स"
      ],
      "new_token": "ेस",
      "frequency": 4939,
      "vocab_size": 69,
      "learned_vocab_size": 10,
      "compression_ratio": 1.0811354891318197,
      "example_words": []
    },
    {
      "step": 11,
      "pair": [
        "क",
        "े"
      ],
      "new_token": "के",
      "frequency": 4886,
      "vocab_size": 70,
      "learned_vocab_size": 11,
      "compression_ratio": 1.0873610646747507,
      "example_words": []
    },
    {
      "step": 12,
      "pair": [
        "र",
        "्"
      ],
      "new_token": "र्",
      "frequency": 4876,
      "vocab_size": 71,
      "learned_vocab_size": 12,
      "compression_ratio": 1.0935857165117977,
      "example_words": []
    },
    {
      "step": 13,
      "pair": [
        "ए",
        "क्"
      ],
      "new_token": "एक्",
      "frequency": 4632,
      "vocab_size": 72,
      "learned_vocab_size": 13,
      "compression_ratio": 1.1001529899036093,
      "example_words": []
    },
    {
      "step": 14,
      "pair": [
        "प्र",
        "ेस"
      ],
      "new_token": "प्रेस",
      "frequency": 4599,
      "vocab_size": 73,
      "learned_vocab_size": 14,
      "compression_ratio": 1.1061922990317496,
      "example_words": []
    },
    {
      "step": 15,
      "pair": [
        "एक्",
        "स्"
      ],
      "new_token": "एक्स्",
      "frequency": 4548,
      "vocab_size": 74,
      "learned_vocab_size": 15,
      "compression_ratio": 1.112255865775331,
      "example_words": []
    },
    {
      "step": 16,
      "pair": [
        "एक्स्",
        "प्रेस"
      ],
      "new_token": "एक्स्प्रेस",
      "frequency": 4543,
      "vocab_size": 75,
      "learned_vocab_size": 16,
      "compression_ratio": 1.118316595618241,
      "example_words": []
    },
    {
      "step": 17,
      "pair": [
        "ा",
        "न"
      ],
      "new_token": "ान",
      "frequency": 4236,
      "vocab_size": 76,
      "learned_vocab_size": 17,
      "compression_ratio": 1.1244369647475783,
      "example_words": []
    },
    {
      "step": 18,
      "pair": [
        "ि",
        "त"
      ],
      "new_token": "ित",
      "frequency": 4047,
      "vocab_size": 77,
      "learned_vocab_size": 18,
      "compression_ratio": 1.1303125272468346,
      "example_words": []
    },
    {
      "step": 19,
      "pair": [
        "पु",
        "र"
      ],
      "new_token": "पुर",
      "frequency": 3912,
      "vocab_size": 78,
      "learned_vocab_size": 19,
      "compression_ratio": 1.135879241168403,
      "example_words": []
    },
    {
      "step": 20,
      "pair": [
        "न",
        "्"
      ],
      "new_token": "न्",
      "frequency": 3717,
      "vocab_size": 79,
      "learned_vocab_size": 20,
      "compression_ratio": 1.1413642655553762,
      "example_words": []
    },
    {
      "step": 21,
      "pair": [
        "म",
        "ें"
      ],
      "new_token": "में",
      "frequency": 3674,
      "vocab_size": 80,
      "learned_vocab_size": 21,
      "compression_ratio": 1.1466489111433518,
      "example_words": []
    },
    {
      "step": 22,
      "pair": [
        "क",
        "ा"
      ],
      "new_token": "का",
      "frequency": 3652,
      "vocab_size": 81,
      "learned_vocab_size": 22,
      "compression_ratio": 1.1518476698196447,
      "example_words": []
    },
    {
      "step": 23,
      "pair": [
        "ह",
        "ै"
      ],
      "new_token": "है",
      "frequency": 3458,
      "vocab_size": 82,
      "learned_vocab_size": 23,
      "compression_ratio": 1.1575156533482478,
      "example_words": []
    },
    {
      "step": 24,
      "pair": [
        "व",
        "ि"
      ],
      "new_token": "वि",
      "frequency": 3340,
      "vocab_size": 83,
      "learned_vocab_size": 24,
      "compression_ratio": 1.162500825114364,
      "example_words": []
    },
    {
      "step": 25,
      "pair": [
        "स",
        "ं"
      ],
      "new_token": "सं",
      "frequency": 3250,
      "vocab_size": 84,
      "learned_vocab_size": 25,
      "compression_ratio": 1.1673597414632988,
      "example_words": []
    },
    {
      "step": 26,
      "pair": [
        "ल",
        "ा"
      ],
      "new_token": "ला",
      "frequency": 3135,
      "vocab_size": 85,
      "learned_vocab_size": 26,
      "compression_ratio": 1.172124014381027,
      "example_words": []
    },
    {
      "step": 27,
      "pair": [
        "क",
        "र"
      ],
      "new_token": "कर",
      "frequency": 3071,
      "vocab_size": 86,
      "learned_vocab_size": 27,
      "compression_ratio": 1.1767819207614965,
      "example_words": []
    },
    {
      "step": 28,
      "pair": [
        "न",
        "ा"
      ],
      "new_token": "ना",
      "frequency": 3031,
      "vocab_size": 87,
      "learned_vocab_size": 28,
      "compression_ratio": 1.181376805174094,
      "example_words": []
    },
    {
      "step": 29,
      "pair": [
        "क",
        "ी"
      ],
      "new_token": "की",
      "frequency": 2915,
      "vocab_size": 88,
      "learned_vocab_size": 29,
      "compression_ratio": 1.1861825492540878,
      "example_words": []
    },
    {
      "step": 30,
      "pair": [
        "2",
        "0"
      ],
      "new_token": "20",
      "frequency": 2763,
      "vocab_size": 89,
      "learned_vocab_size": 30,
      "compression_ratio": 1.1905930553819386,
      "example_words": []
    },
    {
      "step": 31,
      "pair": [
        "स",
        "े"
      ],
      "new_token": "से",
      "frequency": 2707,
      "vocab_size": 90,
      "learned_vocab_size": 31,
      "compression_ratio": 1.1948039646139135,
      "example_words": []
    },
    {
      "step": 32,
      "pair": [
        "व",
        "ा"
      ],
      "new_token": "वा",
      "frequency": 2657,
      "vocab_size": 91,
      "learned_vocab_size": 32,
      "compression_ratio": 1.1989600553883544,
      "example_words": []
    },
    {
      "step": 33,
      "pair": [
        "क",
        "ो"
      ],
      "new_token": "को",
      "frequency": 2588,
      "vocab_size": 92,
      "learned_vocab_size": 33,
      "compression_ratio": 1.2037797948376678,
      "example_words": []
    },
    {
      "step": 34,
      "pair": [
        "त",
        "ा"
      ],
      "new_token": "ता",
      "frequency": 2509,
      "vocab_size": 93,
      "learned_vocab_size": 34,
      "compression_ratio": 1.2078110968196087,
      "example_words": []
    },
    {
      "step": 35,
      "pair": [
        "ि",
        "या"
      ],
      "new_token": "िया",
      "frequency": 2494,
      "vocab_size": 94,
      "learned_vocab_size": 35,
      "compression_ratio": 1.2118836511508035,
      "example_words": []
    },
    {
      "step": 36,
      "pair": [
        "ल",
        "े"
      ],
      "new_token": "ले",
      "frequency": 2454,
      "vocab_size": 95,
      "learned_vocab_size": 36,
      "compression_ratio": 1.2160502995197782,
      "example_words": []
    },
    {
      "step": 37,
      "pair": [
        "द",
        "े"
      ],
      "new_token": "दे",
      "frequency": 2400,
      "vocab_size": 96,
      "learned_vocab_size": 37,
      "compression_ratio": 1.2199570254501348,
      "example_words": []
    },
    {
      "step": 38,
      "pair": [
        "्",
        "य"
      ],
      "new_token": "्य",
      "frequency": 2394,
      "vocab_size": 97,
      "learned_vocab_size": 38,
      "compression_ratio": 1.2237958631395667,
      "example_words": []
    },
    {
      "step": 39,
      "pair": [
        "त",
        "ि"
      ],
      "new_token": "ति",
      "frequency": 2349,
      "vocab_size": 98,
      "learned_vocab_size": 39,
      "compression_ratio": 1.2280999064511842,
      "example_words": []
    },
    {
      "step": 40,
      "pair": [
        "ा",
        "द"
      ],
      "new_token": "ाद",
      "frequency": 2317,
      "vocab_size": 99,
      "learned_vocab_size": 40,
      "compression_ratio": 1.2319121950060645,
      "example_words": []
    },
    {
      "step": 41,
      "pair": [
        "न",
        "े"
      ],
      "new_token": "ने",
      "frequency": 2099,
      "vocab_size": 100,
      "learned_vocab_size": 41,
      "compression_ratio": 1.2358382145770002,
      "example_words": []
    },
    {
      "step": 42,
      "pair": [
        "ं",
        "ग"
      ],
      "new_token": "ंग",
      "frequency": 1993,
      "vocab_size": 101,
      "learned_vocab_size": 42,
      "compression_ratio": 1.2395407268902652,
      "example_words": []
    },
    {
      "step": 43,
      "pair": [
        "ल",
        "ी"
      ],
      "new_token": "ली",
      "frequency": 1982,
      "vocab_size": 102,
      "learned_vocab_size": 43,
      "compression_ratio": 1.242859901065905,
      "example_words": []
    },
    {
      "step": 44,
      "pair": [
        "ो",
        "ं"
      ],
      "new_token": "ों",
      "frequency": 1894,
      "vocab_size": 103,
      "learned_vocab_size": 44,
      "compression_ratio": 1.2461486496409322,
      "example_words": []
    },
    {
      "step": 45,
      "pair": [
        "न",
        "ि"
      ],
      "new_token": "नि",
      "frequency": 1834,
      "vocab_size": 104,
      "learned_vocab_size": 45,
      "compression_ratio": 1.24930768314441,
      "example_words": []
    },
    {
      "step": 46,
      "pair": [
        "म",
        "ा"
      ],
      "new_token": "मा",
      "frequency": 1832,
      "vocab_size": 105,
      "learned_vocab_size": 46,
      "compression_ratio": 1.2524962192727853,
      "example_words": []
    },
    {
      "step": 47,
      "pair": [
        "ड",
        "़"
      ],
      "new_token": "ड़",
      "frequency": 1817,
      "vocab_size": 106,
      "learned_vocab_size": 47,
      "compression_ratio": 1.2561810182749,
      "example_words": []
    },
    {
      "step": 48,
      "pair": [
        "र",
        "ी"
      ],
      "new_token": "री",
      "frequency": 1709,
      "vocab_size": 107,
      "learned_vocab_size": 48,
      "compression_ratio": 1.2592603585420872,
      "example_words": []
    },
    {
      "step": 49,
      "pair": [
        "औ",
        "र"
      ],
      "new_token": "और",
      "frequency": 1685,
      "vocab_size": 108,
      "learned_vocab_size": 49,
      "compression_ratio": 1.2631987798292899,
      "example_words": []
    },
    {
      "step": 50,
      "pair": [
        "त",
        "्"
      ],
      "new_token": "त्",
      "frequency": 1680,
      "vocab_size": 109,
      "learned_vocab_size": 50,
      "compression_ratio": 1.2660859327100977,
      "example_words": []
    },
    {
      "step": 51,
      "pair": [
        "स",
        "ा"
      ],
      "new_token": "सा",
      "frequency": 1679,
      "vocab_size": 110,
      "learned_vocab_size": 51,
      "compression_ratio": 1.2698166957345094,
      "example_words": []
    },
    {
      "step": 52,
      "pair": [
        "a",
        "n"
      ],
      "new_token": "an",
      "frequency": 1668,
      "vocab_size": 111,
      "learned_vocab_size": 52,
      "compression_ratio": 1.2728504997886296,
      "example_words": []
    },
    {
      "step": 53,
      "pair": [
        "ह",
        "ा"
      ],
      "new_token": "हा",
      "frequency": 1623,
      "vocab_size": 112,
      "learned_vocab_size": 53,
      "compression_ratio": 1.2757523488263385,
      "example_words": []
    },
    {
      "step": 54,
      "pair": [
        "ल",
        "ि"
      ],
      "new_token": "लि",
      "frequency": 1604,
      "vocab_size": 113,
      "learned_vocab_size": 54,
      "compression_ratio": 1.2790056194940673,
      "example_words": []
    },
    {
      "step": 55,
      "pair": [
        "रा",
        "ज"
      ],
      "new_token": "राज",
      "frequency": 1581,
      "vocab_size": 114,
      "learned_vocab_size": 55,
      "compression_ratio": 1.2818317650225497,
      "example_words": []
    },
    {
      "step": 56,
      "pair": [
        "भ",
        "ा"
      ],
      "new_token": "भा",
      "frequency": 1555,
      "vocab_size": 115,
      "learned_vocab_size": 56,
      "compression_ratio": 1.2846845730880663,
      "example_words": []
    },
    {
      "step": 57,
      "pair": [
        "प",
        "र"
      ],
      "new_token": "पर",
      "frequency": 1521,
      "vocab_size": 116,
      "learned_vocab_size": 57,
      "compression_ratio": 1.2874737406911354,
      "example_words": []
    },
    {
      "step": 58,
      "pair": [
        "ल",
        "्"
      ],
      "new_token": "ल्",
      "frequency": 1520,
      "vocab_size": 117,
      "learned_vocab_size": 58,
      "compression_ratio": 1.290360664621578,
      "example_words": []
    },
    {
      "step": 59,
      "pair": [
        "कर",
        "ें"
      ],
      "new_token": "करें",
      "frequency": 1520,
      "vocab_size": 118,
      "learned_vocab_size": 59,
      "compression_ratio": 1.2931566441995304,
      "example_words": []
    },
    {
      "step": 60,
      "pair": [
        "ि",
        "क"
      ],
      "new_token": "िक",
      "frequency": 1483,
      "vocab_size": 119,
      "learned_vocab_size": 60,
      "compression_ratio": 1.2958909967345669,
      "example_words": []
    },
    {
      "step": 61,
      "pair": [
        "1",
        "9"
      ],
      "new_token": "19",
      "frequency": 1464,
      "vocab_size": 120,
      "learned_vocab_size": 61,
      "compression_ratio": 1.2992244134383037,
      "example_words": []
    },
    {
      "step": 62,
      "pair": [
        "त",
        "ी"
      ],
      "new_token": "ती",
      "frequency": 1454,
      "vocab_size": 121,
      "learned_vocab_size": 62,
      "compression_ratio": 1.3018773711225173,
      "example_words": []
    },
    {
      "step": 63,
      "pair": [
        "म",
        "ु"
      ],
      "new_token": "मु",
      "frequency": 1433,
      "vocab_size": 122,
      "learned_vocab_size": 63,
      "compression_ratio": 1.3045849453228078,
      "example_words": []
    },
    {
      "step": 64,
      "pair": [
        "स",
        "ी"
      ],
      "new_token": "सी",
      "frequency": 1419,
      "vocab_size": 123,
      "learned_vocab_size": 64,
      "compression_ratio": 1.3072031079534872,
      "example_words": []
    },
    {
      "step": 65,
      "pair": [
        "i",
        "n"
      ],
      "new_token": "in",
      "frequency": 1418,
      "vocab_size": 124,
      "learned_vocab_size": 65,
      "compression_ratio": 1.3098226100916208,
      "example_words": []
    },
    {
      "step": 66,
      "pair": [
        "द",
        "्"
      ],
      "new_token": "द्",
      "frequency": 1416,
      "vocab_size": 125,
      "learned_vocab_size": 66,
      "compression_ratio": 1.312434177501747,
      "example_words": []
    },
    {
      "step": 67,
      "pair": [
        "म",
        "्"
      ],
      "new_token": "म्",
      "frequency": 1392,
      "vocab_size": 126,
      "learned_vocab_size": 67,
      "compression_ratio": 1.3160388864214763,
      "example_words": []
    },
    {
      "step": 68,
      "pair": [
        "ज",
        "ि"
      ],
      "new_token": "जि",
      "frequency": 1378,
      "vocab_size": 127,
      "learned_vocab_size": 68,
      "compression_ratio": 1.3188802868943377,
      "example_words": []
    },
    {
      "step": 69,
      "pair": [
        "ज",
        "़"
      ],
      "new_token": "ज़",
      "frequency": 1330,
      "vocab_size": 128,
      "learned_vocab_size": 69,
      "compression_ratio": 1.3214720052553413,
      "example_words": []
    },
    {
      "step": 70,
      "pair": [
        "ग",
        "र"
      ],
      "new_token": "गर",
      "frequency": 1330,
      "vocab_size": 129,
      "learned_vocab_size": 70,
      "compression_ratio": 1.3239668765017774,
      "example_words": []
    },
    {
      "step": 71,
      "pair": [
        "प",
        "ाद"
      ],
      "new_token": "पाद",
      "frequency": 1310,
      "vocab_size": 130,
      "learned_vocab_size": 71,
      "compression_ratio": 1.3264033264033264,
      "example_words": []
    },
    {
      "step": 72,
      "pair": [
        "20",
        "1"
      ],
      "new_token": "201",
      "frequency": 1272,
      "vocab_size": 131,
      "learned_vocab_size": 72,
      "compression_ratio": 1.328879030512876,
      "example_words": []
    },
    {
      "step": 73,
      "pair": [
        "न",
        "ी"
      ],
      "new_token": "नी",
      "frequency": 1271,
      "vocab_size": 132,
      "learned_vocab_size": 73,
      "compression_ratio": 1.3312899361022363,
      "example_words": []
    },
    {
      "step": 74,
      "pair": [
        "सं",
        "पाद"
      ],
      "new_token": "संपाद",
      "frequency": 1248,
      "vocab_size": 133,
      "learned_vocab_size": 74,
      "compression_ratio": 1.334331157561878,
      "example_words": []
    },
    {
      "step": 75,
      "pair": [
        "संपाद",
        "ित"
      ],
      "new_token": "संपादित",
      "frequency": 1229,
      "vocab_size": 134,
      "learned_vocab_size": 75,
      "compression_ratio": 1.3367159596376208,
      "example_words": []
    },
    {
      "step": 76,
      "pair": [
        "ज",
        "ा"
      ],
      "new_token": "जा",
      "frequency": 1227,
      "vocab_size": 135,
      "learned_vocab_size": 76,
      "compression_ratio": 1.3390728001778938,
      "example_words": []
    },
    {
      "step": 77,
      "pair": [
        "[",
        "संपादित"
      ],
      "new_token": "[संपादित",
      "frequency": 1227,
      "vocab_size": 136,
      "learned_vocab_size": 77,
      "compression_ratio": 1.3417580679939625,
      "example_words": []
    },
    {
      "step": 78,
      "pair": [
        "करें",
        "]"
      ],
      "new_token": "करें]",
      "frequency": 1227,
      "vocab_size": 137,
      "learned_vocab_size": 78,
      "compression_ratio": 1.3441288666994036,
      "example_words": []
    },
    {
      "step": 79,
      "pair": [
        "ट",
        "ी"
      ],
      "new_token": "टी",
      "frequency": 1223,
      "vocab_size": 138,
      "learned_vocab_size": 79,
      "compression_ratio": 1.3465080583269378,
      "example_words": []
    },
    {
      "step": 80,
      "pair": [
        "ए",
        "क"
      ],
      "new_token": "एक",
      "frequency": 1213,
      "vocab_size": 139,
      "learned_vocab_size": 80,
      "compression_ratio": 1.3488878901344417,
      "example_words": []
    },
    {
      "step": 81,
      "pair": [
        "दे",
        "श"
      ],
      "new_token": "देश",
      "frequency": 1179,
      "vocab_size": 140,
      "learned_vocab_size": 81,
      "compression_ratio": 1.3249385008254304,
      "example_words": []
    },
    {
      "step": 82,
      "pair": [
        "्",
        "ड"
      ],
      "new_token": "्ड",
      "frequency": 1177,
      "vocab_size": 141,
      "learned_vocab_size": 82,
      "compression_ratio": 1.3272709433296883,
      "example_words": []
    },
    {
      "step": 83,
      "pair": [
        "ले",
        "ख"
      ],
      "new_token": "लेख",
      "frequency": 1172,
      "vocab_size": 142,
      "learned_vocab_size": 83,
      "compression_ratio": 1.3295623697529027,
      "example_words": []
    },
    {
      "step": 84,
      "pair": [
        "ब",
        "ा"
      ],
      "new_token": "बा",
      "frequency": 1171,
      "vocab_size": 143,
      "learned_vocab_size": 84,
      "compression_ratio": 1.331785708680348,
      "example_words": []
    },
    {
      "step": 85,
      "pair": [
        "e",
        "r"
      ],
      "new_token": "er",
      "frequency": 1160,
      "vocab_size": 144,
      "learned_vocab_size": 85,
      "compression_ratio": 1.3341022980324222,
      "example_words": []
    },
    {
      "step": 86,
      "pair": [
        "क्",
        "ष"
      ],
      "new_token": "क्ष",
      "frequency": 1150,
      "vocab_size": 145,
      "learned_vocab_size": 86,
      "compression_ratio": 1.336317900819205,
      "example_words": []
    },
    {
      "step": 87,
      "pair": [
        "क",
        "ि"
      ],
      "new_token": "कि",
      "frequency": 1123,
      "vocab_size": 146,
      "learned_vocab_size": 87,
      "compression_ratio": 1.33852551876443,
      "example_words": []
    },
    {
      "step": 88,
      "pair": [
        "स्",
        "थ"
      ],
      "new_token": "स्थ",
      "frequency": 1113,
      "vocab_size": 147,
      "learned_vocab_size": 88,
      "compression_ratio": 1.3412394258527214,
      "example_words": []
    },
    {
      "step": 89,
      "pair": [
        "श",
        "्"
      ],
      "new_token": "श्",
      "frequency": 1087,
      "vocab_size": 148,
      "learned_vocab_size": 89,
      "compression_ratio": 1.3433898719784687,
      "example_words": []
    },
    {
      "step": 90,
      "pair": [
        "o",
        "n"
      ],
      "new_token": "on",
      "frequency": 1072,
      "vocab_size": 149,
      "learned_vocab_size": 90,
      "compression_ratio": 1.3458576473149721,
      "example_words": []
    },
    {
      "step": 91,
      "pair": [
        "ण",
        "्ड"
      ],
      "new_token": "ण्ड",
      "frequency": 1067,
      "vocab_size": 150,
      "learned_vocab_size": 91,
      "compression_ratio": 1.3479411777448196,
      "example_words": []
    },
    {
      "step": 92,
      "pair": [
        "क",
        "ु"
      ],
      "new_token": "कु",
      "frequency": 1067,
      "vocab_size": 151,
      "learned_vocab_size": 92,
      "compression_ratio": 1.3500214060909006,
      "example_words": []
    },
    {
      "step": 93,
      "pair": [
        "o",
        "r"
      ],
      "new_token": "or",
      "frequency": 1044,
      "vocab_size": 152,
      "learned_vocab_size": 93,
      "compression_ratio": 1.3521100236990167,
      "example_words": []
    },
    {
      "step": 94,
      "pair": [
        "स",
        "ि"
      ],
      "new_token": "सि",
      "frequency": 1036,
      "vocab_size": 153,
      "learned_vocab_size": 94,
      "compression_ratio": 1.3541579619312907,
      "example_words": []
    },
    {
      "step": 95,
      "pair": [
        "न",
        "गर"
      ],
      "new_token": "नगर",
      "frequency": 1022,
      "vocab_size": 154,
      "learned_vocab_size": 95,
      "compression_ratio": 1.3564072270492649,
      "example_words": []
    },
    {
      "step": 96,
      "pair": [
        "a",
        "l"
      ],
      "new_token": "al",
      "frequency": 1013,
      "vocab_size": 155,
      "learned_vocab_size": 96,
      "compression_ratio": 1.3586125585863584,
      "example_words": []
    },
    {
      "step": 97,
      "pair": [
        "ं",
        "ड"
      ],
      "new_token": "ंड",
      "frequency": 1008,
      "vocab_size": 156,
      "learned_vocab_size": 97,
      "compression_ratio": 1.3606187691962326,
      "example_words": []
    },
    {
      "step": 98,
      "pair": [
        "न्",
        "द"
      ],
      "new_token": "न्द",
      "frequency": 1002,
      "vocab_size": 157,
      "learned_vocab_size": 98,
      "compression_ratio": 1.3626687105368809,
      "example_words": []
    },
    {
      "step": 99,
      "pair": [
        "त्",
        "त"
      ],
      "new_token": "त्त",
      "frequency": 987,
      "vocab_size": 158,
      "learned_vocab_size": 99,
      "compression_ratio": 1.3648345927988208,
      "example_words": []
    },
    {
      "step": 100,
      "pair": [
        "प",
        "ा"
      ],
      "new_token": "पा",
      "frequency": 946,
      "vocab_size": 159,
      "learned_vocab_size": 100,
      "compression_ratio": 1.3668312126861026,
      "example_words": []
    },
    {
      "step": 101,
      "pair": [
        "a",
        "r"
      ],
      "new_token": "ar",
      "frequency": 943,
      "vocab_size": 160,
      "learned_vocab_size": 101,
      "compression_ratio": 1.3591902470847264,
      "example_words": [
        "www.uttara.gov.in",
        "NagarNeighbourhood",
        "Nagar\"."
      ]
    },
    {
      "step": 102,
      "pair": [
        "म",
        "े"
      ],
      "new_token": "मे",
      "frequency": 935,
      "vocab_size": 161,
      "learned_vocab_size": 102,
      "compression_ratio": 1.361059224100848,
      "example_words": []
    },
    {
      "step": 103,
      "pair": [
        "a",
        "t"
      ],
      "new_token": "at",
      "frequency": 923,
      "vocab_size": 162,
      "learned_vocab_size": 103,
      "compression_ratio": 1.3556664870525321,
      "example_words": []
    },
    {
      "step": 104,
      "pair": [
        "e",
        "n"
      ],
      "new_token": "en",
      "frequency": 906,
      "vocab_size": 163,
      "learned_vocab_size": 104,
      "compression_ratio": 1.3574862927035007,
      "example_words": []
    },
    {
      "step": 105,
      "pair": [
        "ग",
        "ा"
      ],
      "new_token": "गा",
      "frequency": 900,
      "vocab_size": 164,
      "learned_vocab_size": 105,
      "compression_ratio": 1.359277338630287,
      "example_words": []
    },
    {
      "step": 106,
      "pair": [
        "इ",
        "स"
      ],
      "new_token": "इस",
      "frequency": 898,
      "vocab_size": 165,
      "learned_vocab_size": 106,
      "compression_ratio": 1.3611167820624246,
      "example_words": []
    },
    {
      "step": 107,
      "pair": [
        "ह",
        "ी"
      ],
      "new_token": "ही",
      "frequency": 892,
      "vocab_size": 166,
      "learned_vocab_size": 107,
      "compression_ratio": 1.3629174271738338,
      "example_words": []
    },
    {
      "step": 108,
      "pair": [
        "म",
        "ि"
      ],
      "new_token": "मि",
      "frequency": 872,
      "vocab_size": 167,
      "learned_vocab_size": 108,
      "compression_ratio": 1.3646949081668758,
      "example_words": []
    },
    {
      "step": 109,
      "pair": [
        "ष",
        "्"
      ],
      "new_token": "ष्",
      "frequency": 851,
      "vocab_size": 168,
      "learned_vocab_size": 109,
      "compression_ratio": 1.366753156994588,
      "example_words": []
    },
    {
      "step": 110,
      "pair": [
        "ग",
        "म"
      ],
      "new_token": "गम",
      "frequency": 848,
      "vocab_size": 169,
      "learned_vocab_size": 110,
      "compression_ratio": 1.368462412491295,
      "example_words": []
    },
    {
      "step": 111,
      "pair": [
        "व",
        "े"
      ],
      "new_token": "वे",
      "frequency": 845,
      "vocab_size": 170,
      "learned_vocab_size": 111,
      "compression_ratio": 1.3701940509062511,
      "example_words": []
    },
    {
      "step": 112,
      "pair": [
        "उ",
        "त्त"
      ],
      "new_token": "उत्त",
      "frequency": 843,
      "vocab_size": 171,
      "learned_vocab_size": 112,
      "compression_ratio": 1.371964358682647,
      "example_words": []
    },
    {
      "step": 113,
      "pair": [
        "ं",
        "द"
      ],
      "new_token": "ंद",
      "frequency": 838,
      "vocab_size": 172,
      "learned_vocab_size": 113,
      "compression_ratio": 1.3736705082790155,
      "example_words": []
    },
    {
      "step": 114,
      "pair": [
        "ब",
        "र"
      ],
      "new_token": "बर",
      "frequency": 831,
      "vocab_size": 173,
      "learned_vocab_size": 114,
      "compression_ratio": 1.3757032211471145,
      "example_words": []
    },
    {
      "step": 115,
      "pair": [
        "ह",
        "ि"
      ],
      "new_token": "हि",
      "frequency": 827,
      "vocab_size": 174,
      "learned_vocab_size": 115,
      "compression_ratio": 1.377400394599564,
      "example_words": []
    },
    {
      "step": 116,
      "pair": [
        "e",
        "s"
      ],
      "new_token": "es",
      "frequency": 826,
      "vocab_size": 175,
      "learned_vocab_size": 116,
      "compression_ratio": 1.3791017607522313,
      "example_words": []
    },
    {
      "step": 117,
      "pair": [
        "म",
        "ी"
      ],
      "new_token": "मी",
      "frequency": 822,
      "vocab_size": 176,
      "learned_vocab_size": 117,
      "compression_ratio": 1.3807869086239823,
      "example_words": []
    },
    {
      "step": 118,
      "pair": [
        "है",
        "ं"
      ],
      "new_token": "हैं",
      "frequency": 821,
      "vocab_size": 177,
      "learned_vocab_size": 118,
      "compression_ratio": 1.3824679893063176,
      "example_words": []
    },
    {
      "step": 119,
      "pair": [
        "ढ",
        "़"
      ],
      "new_token": "ढ़",
      "frequency": 795,
      "vocab_size": 178,
      "learned_vocab_size": 119,
      "compression_ratio": 1.3841511157510114,
      "example_words": []
    },
    {
      "step": 120,
      "pair": [
        "त",
        "े"
      ],
      "new_token": "ते",
      "frequency": 780,
      "vocab_size": 179,
      "learned_vocab_size": 120,
      "compression_ratio": 1.3857848500999927,
      "example_words": []
    },
    {
      "step": 121,
      "pair": [
        "ज",
        "ी"
      ],
      "new_token": "जी",
      "frequency": 779,
      "vocab_size": 180,
      "learned_vocab_size": 121,
      "compression_ratio": 1.3874038851720443,
      "example_words": []
    },
    {
      "step": 122,
      "pair": [
        "व",
        "ी"
      ],
      "new_token": "वी",
      "frequency": 760,
      "vocab_size": 181,
      "learned_vocab_size": 122,
      "compression_ratio": 1.3890205065626953,
      "example_words": []
    },
    {
      "step": 123,
      "pair": [
        "ज",
        "ो"
      ],
      "new_token": "जो",
      "frequency": 747,
      "vocab_size": 182,
      "learned_vocab_size": 123,
      "compression_ratio": 1.390593248115372,
      "example_words": []
    },
    {
      "step": 124,
      "pair": [
        "श",
        "ा"
      ],
      "new_token": "शा",
      "frequency": 734,
      "vocab_size": 183,
      "learned_vocab_size": 124,
      "compression_ratio": 1.3921487911465091,
      "example_words": []
    },
    {
      "step": 125,
      "pair": [
        "भार",
        "त"
      ],
      "new_token": "भारत",
      "frequency": 728,
      "vocab_size": 184,
      "learned_vocab_size": 125,
      "compression_ratio": 1.3937327910074242,
      "example_words": []
    },
    {
      "step": 126,
      "pair": [
        "म",
        "ू"
      ],
      "new_token": "मू",
      "frequency": 726,
      "vocab_size": 185,
      "learned_vocab_size": 126,
      "compression_ratio": 1.3937348721157163,
      "example_words": []
    },
    {
      "step": 127,
      "pair": [
        "भ",
        "ि"
      ],
      "new_token": "भि",
      "frequency": 722,
      "vocab_size": 186,
      "learned_vocab_size": 127,
      "compression_ratio": 1.3952473986555671,
      "example_words": []
    },
    {
      "step": 128,
      "pair": [
        "ह",
        "ु"
      ],
      "new_token": "हु",
      "frequency": 717,
      "vocab_size": 187,
      "learned_vocab_size": 128,
      "compression_ratio": 1.396775752750846,
      "example_words": []
    },
    {
      "step": 129,
      "pair": [
        "ग",
        "ो"
      ],
      "new_token": "गो",
      "frequency": 713,
      "vocab_size": 188,
      "learned_vocab_size": 129,
      "compression_ratio": 1.3982760377030614,
      "example_words": []
    },
    {
      "step": 130,
      "pair": [
        "श्",
        "व"
      ],
      "new_token": "श्व",
      "frequency": 709,
      "vocab_size": 189,
      "learned_vocab_size": 130,
      "compression_ratio": 1.3998950146979423,
      "example_words": []
    },
    {
      "step": 131,
      "pair": [
        "ल",
        "य"
      ],
      "new_token": "लय",
      "frequency": 688,
      "vocab_size": 190,
      "learned_vocab_size": 131,
      "compression_ratio": 1.4013999075136176,
      "example_words": []
    },
    {
      "step": 132,
      "pair": [
        "ह",
        "ो"
      ],
      "new_token": "हो",
      "frequency": 687,
      "vocab_size": 191,
      "learned_vocab_size": 132,
      "compression_ratio": 1.4028490011362338,
      "example_words": []
    },
    {
      "step": 133,
      "pair": [
        "ब",
        "ि"
      ],
      "new_token": "बि",
      "frequency": 683,
      "vocab_size": 192,
      "learned_vocab_size": 133,
      "compression_ratio": 1.4043053202661187,
      "example_words": []
    },
    {
      "step": 134,
      "pair": [
        "द",
        "ि"
      ],
      "new_token": "दि",
      "frequency": 675,
      "vocab_size": 193,
      "learned_vocab_size": 134,
      "compression_ratio": 1.4057752522324016,
      "example_words": []
    },
    {
      "step": 135,
      "pair": [
        "राज",
        "्य"
      ],
      "new_token": "राज्य",
      "frequency": 673,
      "vocab_size": 194,
      "learned_vocab_size": 135,
      "compression_ratio": 1.4072143188821815,
      "example_words": []
    },
    {
      "step": 136,
      "pair": [
        "ल",
        "ो"
      ],
      "new_token": "लो",
      "frequency": 673,
      "vocab_size": 195,
      "learned_vocab_size": 136,
      "compression_ratio": 1.4087647646559869,
      "example_words": []
    },
    {
      "step": 137,
      "pair": [
        "र",
        "े"
      ],
      "new_token": "रे",
      "frequency": 660,
      "vocab_size": 196,
      "learned_vocab_size": 137,
      "compression_ratio": 1.4101993086443627,
      "example_words": []
    },
    {
      "step": 138,
      "pair": [
        "1",
        "0"
      ],
      "new_token": "10",
      "frequency": 652,
      "vocab_size": 197,
      "learned_vocab_size": 138,
      "compression_ratio": 1.412207030215736,
      "example_words": []
    },
    {
      "step": 139,
      "pair": [
        "ज",
        "न"
      ],
      "new_token": "जन",
      "frequency": 652,
      "vocab_size": 198,
      "learned_vocab_size": 139,
      "compression_ratio": 1.4136014963008958,
      "example_words": []
    },
    {
      "step": 140,
      "pair": [
        "भ",
        "ी"
      ],
      "new_token": "भी",
      "frequency": 649,
      "vocab_size": 199,
      "learned_vocab_size": 140,
      "compression_ratio": 1.4150437674910783,
      "example_words": []
    },
    {
      "step": 141,
      "pair": [
        "थ",
        "ा"
      ],
      "new_token": "था",
      "frequency": 648,
      "vocab_size": 200,
      "learned_vocab_size": 141,
      "compression_ratio": 1.4164373957658356,
      "example_words": []
    },
    {
      "step": 142,
      "pair": [
        "स",
        "ु"
      ],
      "new_token": "सु",
      "frequency": 637,
      "vocab_size": 201,
      "learned_vocab_size": 142,
      "compression_ratio": 1.417868231891455,
      "example_words": []
    },
    {
      "step": 143,
      "pair": [
        "प",
        "ू"
      ],
      "new_token": "पू",
      "frequency": 629,
      "vocab_size": 202,
      "learned_vocab_size": 143,
      "compression_ratio": 1.4192436936457493,
      "example_words": []
    },
    {
      "step": 144,
      "pair": [
        "र",
        "ू"
      ],
      "new_token": "रू",
      "frequency": 623,
      "vocab_size": 203,
      "learned_vocab_size": 144,
      "compression_ratio": 1.420602367279972,
      "example_words": []
    },
    {
      "step": 145,
      "pair": [
        "अ",
        "भि"
      ],
      "new_token": "अभि",
      "frequency": 620,
      "vocab_size": 204,
      "learned_vocab_size": 145,
      "compression_ratio": 1.42203080223224,
      "example_words": []
    },
    {
      "step": 146,
      "pair": [
        "द",
        "ी"
      ],
      "new_token": "दी",
      "frequency": 610,
      "vocab_size": 205,
      "learned_vocab_size": 146,
      "compression_ratio": 1.423494675967583,
      "example_words": []
    },
    {
      "step": 147,
      "pair": [
        "द",
        "ा"
      ],
      "new_token": "दा",
      "frequency": 609,
      "vocab_size": 206,
      "learned_vocab_size": 147,
      "compression_ratio": 1.4250290076335879,
      "example_words": []
    },
    {
      "step": 148,
      "pair": [
        "क",
        "ृ"
      ],
      "new_token": "कृ",
      "frequency": 598,
      "vocab_size": 207,
      "learned_vocab_size": 148,
      "compression_ratio": 1.4269657596340681,
      "example_words": []
    },
    {
      "step": 149,
      "pair": [
        "ग",
        "ु"
      ],
      "new_token": "गु",
      "frequency": 596,
      "vocab_size": 208,
      "learned_vocab_size": 149,
      "compression_ratio": 1.4282802532176297,
      "example_words": []
    },
    {
      "step": 150,
      "pair": [
        "o",
        "f"
      ],
      "new_token": "of",
      "frequency": 594,
      "vocab_size": 209,
      "learned_vocab_size": 150,
      "compression_ratio": 1.429584033401081,
      "example_words": []
    },
    {
      "step": 151,
      "pair": [
        "t",
        "h"
      ],
      "new_token": "th",
      "frequency": 593,
      "vocab_size": 210,
      "learned_vocab_size": 151,
      "compression_ratio": 1.4308858089370384,
      "example_words": []
    },
    {
      "step": 152,
      "pair": [
        "नि",
        "र्"
      ],
      "new_token": "निर्",
      "frequency": 591,
      "vocab_size": 211,
      "learned_vocab_size": 152,
      "compression_ratio": 1.4321877598868236,
      "example_words": []
    },
    {
      "step": 153,
      "pair": [
        "र",
        "ु"
      ],
      "new_token": "रु",
      "frequency": 589,
      "vocab_size": 212,
      "learned_vocab_size": 153,
      "compression_ratio": 1.4335030900222383,
      "example_words": []
    },
    {
      "step": 154,
      "pair": [
        "थ",
        "ि"
      ],
      "new_token": "थि",
      "frequency": 585,
      "vocab_size": 213,
      "learned_vocab_size": 154,
      "compression_ratio": 1.4348958333333333,
      "example_words": []
    },
    {
      "step": 155,
      "pair": [
        "य",
        "ो"
      ],
      "new_token": "यो",
      "frequency": 583,
      "vocab_size": 214,
      "learned_vocab_size": 155,
      "compression_ratio": 1.4361984656242595,
      "example_words": []
    },
    {
      "step": 156,
      "pair": [
        "i",
        "s"
      ],
      "new_token": "is",
      "frequency": 581,
      "vocab_size": 215,
      "learned_vocab_size": 156,
      "compression_ratio": 1.4378865673665124,
      "example_words": []
    },
    {
      "step": 157,
      "pair": [
        "ब",
        "ी"
      ],
      "new_token": "बी",
      "frequency": 578,
      "vocab_size": 216,
      "learned_vocab_size": 157,
      "compression_ratio": 1.4391746664158553,
      "example_words": []
    },
    {
      "step": 158,
      "pair": [
        "2",
        "3"
      ],
      "new_token": "23",
      "frequency": 574,
      "vocab_size": 217,
      "learned_vocab_size": 158,
      "compression_ratio": 1.4404584063804045,
      "example_words": []
    },
    {
      "step": 159,
      "pair": [
        "i",
        "c"
      ],
      "new_token": "ic",
      "frequency": 573,
      "vocab_size": 218,
      "learned_vocab_size": 159,
      "compression_ratio": 1.441735530807371,
      "example_words": []
    },
    {
      "step": 160,
      "pair": [
        "20",
        "0"
      ],
      "new_token": "200",
      "frequency": 571,
      "vocab_size": 219,
      "learned_vocab_size": 160,
      "compression_ratio": 1.4430126909870646,
      "example_words": []
    },
    {
      "step": 161,
      "pair": [
        "ह",
        "र"
      ],
      "new_token": "हर",
      "frequency": 563,
      "vocab_size": 220,
      "learned_vocab_size": 161,
      "compression_ratio": 1.4442876462633034,
      "example_words": []
    },
    {
      "step": 162,
      "pair": [
        "व",
        "र्"
      ],
      "new_token": "वर्",
      "frequency": 559,
      "vocab_size": 221,
      "learned_vocab_size": 162,
      "compression_ratio": 1.4460217106047955,
      "example_words": []
    },
    {
      "step": 163,
      "pair": [
        "an",
        "d"
      ],
      "new_token": "and",
      "frequency": 558,
      "vocab_size": 222,
      "learned_vocab_size": 163,
      "compression_ratio": 1.447288526125478,
      "example_words": []
    },
    {
      "step": 164,
      "pair": [
        "स",
        "र"
      ],
      "new_token": "सर",
      "frequency": 557,
      "vocab_size": 223,
      "learned_vocab_size": 164,
      "compression_ratio": 1.4485418270305168,
      "example_words": []
    },
    {
      "step": 165,
      "pair": [
        "ख",
        "ण्ड"
      ],
      "new_token": "खण्ड",
      "frequency": 556,
      "vocab_size": 224,
      "learned_vocab_size": 165,
      "compression_ratio": 1.4498085600453554,
      "example_words": []
    },
    {
      "step": 166,
      "pair": [
        "लि",
        "ए"
      ],
      "new_token": "लिए",
      "frequency": 553,
      "vocab_size": 225,
      "learned_vocab_size": 166,
      "compression_ratio": 1.4510617194896533,
      "example_words": []
    },
    {
      "step": 167,
      "pair": [
        "i",
        "on"
      ],
      "new_token": "ion",
      "frequency": 553,
      "vocab_size": 226,
      "learned_vocab_size": 167,
      "compression_ratio": 1.4523102679960667,
      "example_words": []
    },
    {
      "step": 168,
      "pair": [
        "स्",
        "ट"
      ],
      "new_token": "स्ट",
      "frequency": 541,
      "vocab_size": 227,
      "learned_vocab_size": 168,
      "compression_ratio": 1.4535609669497294,
      "example_words": []
    },
    {
      "step": 169,
      "pair": [
        "उ",
        "प"
      ],
      "new_token": "उप",
      "frequency": 538,
      "vocab_size": 228,
      "learned_vocab_size": 169,
      "compression_ratio": 1.454881850489432,
      "example_words": []
    },
    {
      "step": 170,
      "pair": [
        "य",
        "ह"
      ],
      "new_token": "यह",
      "frequency": 536,
      "vocab_size": 229,
      "learned_vocab_size": 170,
      "compression_ratio": 1.456107453745593,
      "example_words": []
    },
    {
      "step": 171,
      "pair": [
        "ष्",
        "ट"
      ],
      "new_token": "ष्ट",
      "frequency": 530,
      "vocab_size": 230,
      "learned_vocab_size": 171,
      "compression_ratio": 1.4573260221957145,
      "example_words": []
    },
    {
      "step": 172,
      "pair": [
        "म",
        "ो"
      ],
      "new_token": "मो",
      "frequency": 526,
      "vocab_size": 231,
      "learned_vocab_size": 172,
      "compression_ratio": 1.4585329570562884,
      "example_words": []
    },
    {
      "step": 173,
      "pair": [
        "पर",
        "ि"
      ],
      "new_token": "परि",
      "frequency": 526,
      "vocab_size": 232,
      "learned_vocab_size": 173,
      "compression_ratio": 1.4597327611552826,
      "example_words": []
    },
    {
      "step": 174,
      "pair": [
        "उत्त",
        "रा"
      ],
      "new_token": "उत्तरा",
      "frequency": 515,
      "vocab_size": 233,
      "learned_vocab_size": 174,
      "compression_ratio": 1.4609368274584011,
      "example_words": []
    },
    {
      "step": 175,
      "pair": [
        "अ",
        "ध"
      ],
      "new_token": "अध",
      "frequency": 515,
      "vocab_size": 234,
      "learned_vocab_size": 175,
      "compression_ratio": 1.462117687602309,
      "example_words": []
    },
    {
      "step": 176,
      "pair": [
        "प्र",
        "देश"
      ],
      "new_token": "प्रदेश",
      "frequency": 514,
      "vocab_size": 235,
      "learned_vocab_size": 176,
      "compression_ratio": 1.4632981642027372,
      "example_words": []
    },
    {
      "step": 177,
      "pair": [
        "ति",
        "थि"
      ],
      "new_token": "तिथि",
      "frequency": 513,
      "vocab_size": 236,
      "learned_vocab_size": 177,
      "compression_ratio": 1.4644828462675374,
      "example_words": []
    },
    {
      "step": 178,
      "pair": [
        "वि",
        "श्व"
      ],
      "new_token": "विश्व",
      "frequency": 511,
      "vocab_size": 237,
      "learned_vocab_size": 178,
      "compression_ratio": 1.4656763525874048,
      "example_words": []
    },
    {
      "step": 179,
      "pair": [
        "प",
        "ी"
      ],
      "new_token": "पी",
      "frequency": 511,
      "vocab_size": 238,
      "learned_vocab_size": 179,
      "compression_ratio": 1.4668833322070498,
      "example_words": []
    },
    {
      "step": 180,
      "pair": [
        "च",
        "े"
      ],
      "new_token": "चे",
      "frequency": 505,
      "vocab_size": 239,
      "learned_vocab_size": 180,
      "compression_ratio": 1.4680622837370243,
      "example_words": []
    },
    {
      "step": 181,
      "pair": [
        "ग",
        "ढ़"
      ],
      "new_token": "गढ़",
      "frequency": 502,
      "vocab_size": 240,
      "learned_vocab_size": 181,
      "compression_ratio": 1.469238506448226,
      "example_words": []
    },
    {
      "step": 182,
      "pair": [
        "गम",
        "न"
      ],
      "new_token": "गमन",
      "frequency": 501,
      "vocab_size": 241,
      "learned_vocab_size": 182,
      "compression_ratio": 1.4704004007630882,
      "example_words": []
    },
    {
      "step": 183,
      "pair": [
        "2",
        "4"
      ],
      "new_token": "24",
      "frequency": 501,
      "vocab_size": 242,
      "learned_vocab_size": 183,
      "compression_ratio": 1.4715618141916607,
      "example_words": []
    },
    {
      "step": 184,
      "pair": [
        "ष",
        "ा"
      ],
      "new_token": "षा",
      "frequency": 498,
      "vocab_size": 243,
      "learned_vocab_size": 184,
      "compression_ratio": 1.4727250637832585,
      "example_words": []
    },
    {
      "step": 185,
      "pair": [
        "फ",
        "़"
      ],
      "new_token": "फ़",
      "frequency": 498,
      "vocab_size": 244,
      "learned_vocab_size": 185,
      "compression_ratio": 1.4741345681566567,
      "example_words": []
    },
    {
      "step": 186,
      "pair": [
        "व",
        "ं"
      ],
      "new_token": "वं",
      "frequency": 493,
      "vocab_size": 245,
      "learned_vocab_size": 186,
      "compression_ratio": 1.4752948949157794,
      "example_words": []
    },
    {
      "step": 187,
      "pair": [
        "ग",
        "या"
      ],
      "new_token": "गया",
      "frequency": 493,
      "vocab_size": 246,
      "learned_vocab_size": 187,
      "compression_ratio": 1.476461720735926,
      "example_words": []
    },
    {
      "step": 188,
      "pair": [
        "अभि",
        "गमन"
      ],
      "new_token": "अभिगमन",
      "frequency": 490,
      "vocab_size": 247,
      "learned_vocab_size": 188,
      "compression_ratio": 1.4776210370009197,
      "example_words": []
    },
    {
      "step": 189,
      "pair": [
        "2",
        "6"
      ],
      "new_token": "26",
      "frequency": 489,
      "vocab_size": 248,
      "learned_vocab_size": 189,
      "compression_ratio": 1.4787681183529073,
      "example_words": []
    },
    {
      "step": 190,
      "pair": [
        "भ",
        "ू"
      ],
      "new_token": "भू",
      "frequency": 484,
      "vocab_size": 249,
      "learned_vocab_size": 190,
      "compression_ratio": 1.4799146356158477,
      "example_words": []
    },
    {
      "step": 191,
      "pair": [
        "ज़",
        "ि"
      ],
      "new_token": "ज़ि",
      "frequency": 483,
      "vocab_size": 250,
      "learned_vocab_size": 191,
      "compression_ratio": 1.481051181802026,
      "example_words": []
    },
    {
      "step": 192,
      "pair": [
        "e",
        "d"
      ],
      "new_token": "ed",
      "frequency": 483,
      "vocab_size": 251,
      "learned_vocab_size": 192,
      "compression_ratio": 1.482194182342498,
      "example_words": []
    },
    {
      "step": 193,
      "pair": [
        "आ",
        "ध"
      ],
      "new_token": "आध",
      "frequency": 482,
      "vocab_size": 252,
      "learned_vocab_size": 193,
      "compression_ratio": 1.4833318765842147,
      "example_words": []
    },
    {
      "step": 194,
      "pair": [
        "2",
        "8"
      ],
      "new_token": "28",
      "frequency": 481,
      "vocab_size": 253,
      "learned_vocab_size": 194,
      "compression_ratio": 1.4844689577955796,
      "example_words": []
    },
    {
      "step": 195,
      "pair": [
        "स",
        "म"
      ],
      "new_token": "सम",
      "frequency": 480,
      "vocab_size": 254,
      "learned_vocab_size": 195,
      "compression_ratio": 1.485605419136325,
      "example_words": []
    },
    {
      "step": 196,
      "pair": [
        "ट",
        "र"
      ],
      "new_token": "टर",
      "frequency": 478,
      "vocab_size": 255,
      "learned_vocab_size": 196,
      "compression_ratio": 1.4869852113001407,
      "example_words": []
    },
    {
      "step": 197,
      "pair": [
        "न्",
        "न"
      ],
      "new_token": "न्न",
      "frequency": 471,
      "vocab_size": 256,
      "learned_vocab_size": 197,
      "compression_ratio": 1.488113667488796,
      "example_words": []
    },
    {
      "step": 198,
      "pair": [
        "भा",
        "षा"
      ],
      "new_token": "भाषा",
      "frequency": 468,
      "vocab_size": 257,
      "learned_vocab_size": 198,
      "compression_ratio": 1.489291361448263,
      "example_words": []
    },
    {
      "step": 199,
      "pair": [
        "ट",
        "ा"
      ],
      "new_token": "टा",
      "frequency": 467,
      "vocab_size": 258,
      "learned_vocab_size": 199,
      "compression_ratio": 1.4904066629621824,
      "example_words": []
    },
    {
      "step": 200,
      "pair": [
        "ब",
        "े"
      ],
      "new_token": "बे",
      "frequency": 465,
      "vocab_size": 259,
      "learned_vocab_size": 200,
      "compression_ratio": 1.4916142105372499,
      "example_words": []
    },
    {
      "step": 201,
      "pair": [
        "2",
        "1"
      ],
      "new_token": "21",
      "frequency": 456,
      "vocab_size": 260,
      "learned_vocab_size": 201,
      "compression_ratio": 1.4927568681011127,
      "example_words": [
        "पंजीकरणUP-3211KM",
        "121–.",
        "2021-07-26"
      ]
    },
    {
      "step": 202,
      "pair": [
        "क्ष",
        "े"
      ],
      "new_token": "क्षे",
      "frequency": 454,
      "vocab_size": 261,
      "learned_vocab_size": 202,
      "compression_ratio": 1.4938462868062468,
      "example_words": []
    },
    {
      "step": 203,
      "pair": [
        "पू",
        "र्"
      ],
      "new_token": "पूर्",
      "frequency": 448,
      "vocab_size": 262,
      "learned_vocab_size": 203,
      "compression_ratio": 1.4949325081842235,
      "example_words": []
    },
    {
      "step": 204,
      "pair": [
        "य",
        "ु"
      ],
      "new_token": "यु",
      "frequency": 446,
      "vocab_size": 263,
      "learned_vocab_size": 204,
      "compression_ratio": 1.4960059237984114,
      "example_words": []
    },
    {
      "step": 205,
      "pair": [
        "प",
        "्"
      ],
      "new_token": "प्",
      "frequency": 446,
      "vocab_size": 264,
      "learned_vocab_size": 205,
      "compression_ratio": 1.4972585907648677,
      "example_words": []
    },
    {
      "step": 206,
      "pair": [
        "i",
        "t"
      ],
      "new_token": "it",
      "frequency": 431,
      "vocab_size": 265,
      "learned_vocab_size": 206,
      "compression_ratio": 1.4693495245126669,
      "example_words": []
    },
    {
      "step": 207,
      "pair": [
        "क्षे",
        "त्र"
      ],
      "new_token": "क्षेत्र",
      "frequency": 429,
      "vocab_size": 266,
      "learned_vocab_size": 207,
      "compression_ratio": 1.4703471263933259,
      "example_words": []
    },
    {
      "step": 208,
      "pair": [
        "स",
        "ू"
      ],
      "new_token": "सू",
      "frequency": 429,
      "vocab_size": 267,
      "learned_vocab_size": 208,
      "compression_ratio": 1.4703471263933259,
      "example_words": []
    },
    {
      "step": 209,
      "pair": [
        "ं",
        "क"
      ],
      "new_token": "ंक",
      "frequency": 428,
      "vocab_size": 268,
      "learned_vocab_size": 209,
      "compression_ratio": 1.4713414451522189,
      "example_words": []
    },
    {
      "step": 210,
      "pair": [
        "उत्तरा",
        "खण्ड"
      ],
      "new_token": "उत्तराखण्ड",
      "frequency": 422,
      "vocab_size": 269,
      "learned_vocab_size": 210,
      "compression_ratio": 1.4726460625318505,
      "example_words": []
    },
    {
      "step": 211,
      "pair": [
        "\"",
        "."
      ],
      "new_token": "\".",
      "frequency": 422,
      "vocab_size": 270,
      "learned_vocab_size": 211,
      "compression_ratio": 1.4736272081263153,
      "example_words": []
    },
    {
      "step": 212,
      "pair": [
        "र्",
        "भ"
      ],
      "new_token": "र्भ",
      "frequency": 421,
      "vocab_size": 271,
      "learned_vocab_size": 212,
      "compression_ratio": 1.474609661962441,
      "example_words": []
    },
    {
      "step": 213,
      "pair": [
        "u",
        "r"
      ],
      "new_token": "ur",
      "frequency": 421,
      "vocab_size": 272,
      "learned_vocab_size": 213,
      "compression_ratio": 1.4756027577223023,
      "example_words": []
    },
    {
      "step": 214,
      "pair": [
        "रू",
        "प"
      ],
      "new_token": "रूप",
      "frequency": 421,
      "vocab_size": 273,
      "learned_vocab_size": 214,
      "compression_ratio": 1.4765855124737,
      "example_words": []
    },
    {
      "step": 215,
      "pair": [
        "in",
        "g"
      ],
      "new_token": "ing",
      "frequency": 421,
      "vocab_size": 274,
      "learned_vocab_size": 215,
      "compression_ratio": 1.477590628462878,
      "example_words": []
    },
    {
      "step": 216,
      "pair": [
        "i",
        "r"
      ],
      "new_token": "ir",
      "frequency": 420,
      "vocab_size": 275,
      "learned_vocab_size": 216,
      "compression_ratio": 1.4785760337346878,
      "example_words": []
    },
    {
      "step": 217,
      "pair": [
        "र",
        "ो"
      ],
      "new_token": "रो",
      "frequency": 417,
      "vocab_size": 276,
      "learned_vocab_size": 217,
      "compression_ratio": 1.4795604089027818,
      "example_words": []
    },
    {
      "step": 218,
      "pair": [
        "पुरा",
        "लेख"
      ],
      "new_token": "पुरालेख",
      "frequency": 415,
      "vocab_size": 277,
      "learned_vocab_size": 218,
      "compression_ratio": 1.4817965191687026,
      "example_words": []
    },
    {
      "step": 219,
      "pair": [
        "च",
        "ा"
      ],
      "new_token": "चा",
      "frequency": 414,
      "vocab_size": 278,
      "learned_vocab_size": 219,
      "compression_ratio": 1.4817965191687026,
      "example_words": []
    },
    {
      "step": 220,
      "pair": [
        ")",
        "."
      ],
      "new_token": ").",
      "frequency": 410,
      "vocab_size": 279,
      "learned_vocab_size": 220,
      "compression_ratio": 1.4828959074733097,
      "example_words": []
    },
    {
      "step": 221,
      "pair": [
        "2",
        "9"
      ],
      "new_token": "29",
      "frequency": 408,
      "vocab_size": 280,
      "learned_vocab_size": 221,
      "compression_ratio": 1.4838624548908637,
      "example_words": []
    },
    {
      "step": 222,
      "pair": [
        "3",
        "0"
      ],
      "new_token": "30",
      "frequency": 404,
      "vocab_size": 281,
      "learned_vocab_size": 222,
      "compression_ratio": 1.4848255390361775,
      "example_words": []
    },
    {
      "step": 223,
      "pair": [
        "मू",
        "ल"
      ],
      "new_token": "मूल",
      "frequency": 400,
      "vocab_size": 282,
      "learned_vocab_size": 223,
      "compression_ratio": 1.4857804138053987,
      "example_words": []
    },
    {
      "step": 224,
      "pair": [
        "ँ",
        "व"
      ],
      "new_token": "ँव",
      "frequency": 399,
      "vocab_size": 283,
      "learned_vocab_size": 224,
      "compression_ratio": 1.4867507263367143,
      "example_words": []
    },
    {
      "step": 225,
      "pair": [
        "ड़",
        "ा"
      ],
      "new_token": "ड़ा",
      "frequency": 399,
      "vocab_size": 284,
      "learned_vocab_size": 225,
      "compression_ratio": 1.4876962236754654,
      "example_words": []
    },
    {
      "step": 226,
      "pair": [
        "म",
        "द"
      ],
      "new_token": "मद",
      "frequency": 391,
      "vocab_size": 285,
      "learned_vocab_size": 226,
      "compression_ratio": 1.4886476727569664,
      "example_words": []
    },
    {
      "step": 227,
      "pair": [
        "च",
        "ि"
      ],
      "new_token": "चि",
      "frequency": 389,
      "vocab_size": 286,
      "learned_vocab_size": 227,
      "compression_ratio": 1.4895908306748524,
      "example_words": []
    },
    {
      "step": 228,
      "pair": [
        "वि",
        "द्या"
      ],
      "new_token": "विद्या",
      "frequency": 389,
      "vocab_size": 287,
      "learned_vocab_size": 228,
      "compression_ratio": 1.4906899156590523,
      "example_words": []
    },
    {
      "step": 229,
      "pair": [
        "2",
        "5"
      ],
      "new_token": "25",
      "frequency": 389,
      "vocab_size": 288,
      "learned_vocab_size": 229,
      "compression_ratio": 1.4906899156590523,
      "example_words": []
    },
    {
      "step": 230,
      "pair": [
        "a",
        "s"
      ],
      "new_token": "as",
      "frequency": 388,
      "vocab_size": 289,
      "learned_vocab_size": 230,
      "compression_ratio": 1.4916165942214268,
      "example_words": []
    },
    {
      "step": 231,
      "pair": [
        "जि",
        "ला"
      ],
      "new_token": "जिला",
      "frequency": 385,
      "vocab_size": 290,
      "learned_vocab_size": 231,
      "compression_ratio": 1.4925420389784,
      "example_words": []
    },
    {
      "step": 232,
      "pair": [
        "स्",
        "त"
      ],
      "new_token": "स्त",
      "frequency": 379,
      "vocab_size": 291,
      "learned_vocab_size": 232,
      "compression_ratio": 1.4934686327969997,
      "example_words": []
    },
    {
      "step": 233,
      "pair": [
        "ख",
        "ा"
      ],
      "new_token": "खा",
      "frequency": 379,
      "vocab_size": 292,
      "learned_vocab_size": 233,
      "compression_ratio": 1.4947170524387392,
      "example_words": []
    },
    {
      "step": 234,
      "pair": [
        "2",
        "7"
      ],
      "new_token": "27",
      "frequency": 379,
      "vocab_size": 293,
      "learned_vocab_size": 234,
      "compression_ratio": 1.495830909443475,
      "example_words": []
    },
    {
      "step": 235,
      "pair": [
        "u",
        "n"
      ],
      "new_token": "un",
      "frequency": 378,
      "vocab_size": 294,
      "learned_vocab_size": 235,
      "compression_ratio": 1.4967399914691366,
      "example_words": []
    },
    {
      "step": 236,
      "pair": [
        "e",
        "l"
      ],
      "new_token": "el",
      "frequency": 378,
      "vocab_size": 295,
      "learned_vocab_size": 236,
      "compression_ratio": 1.4976477761376035,
      "example_words": []
    },
    {
      "step": 237,
      "pair": [
        "र",
        "ि"
      ],
      "new_token": "रि",
      "frequency": 370,
      "vocab_size": 296,
      "learned_vocab_size": 237,
      "compression_ratio": 1.4985566626315299,
      "example_words": []
    },
    {
      "step": 238,
      "pair": [
        "द्",
        "ध"
      ],
      "new_token": "द्ध",
      "frequency": 369,
      "vocab_size": 297,
      "learned_vocab_size": 238,
      "compression_ratio": 1.5009423161036355,
      "example_words": []
    },
    {
      "step": 239,
      "pair": [
        "विद्या",
        "लय"
      ],
      "new_token": "विद्यालय",
      "frequency": 368,
      "vocab_size": 298,
      "learned_vocab_size": 239,
      "compression_ratio": 1.5018358750253418,
      "example_words": []
    },
    {
      "step": 240,
      "pair": [
        "न",
        "ु"
      ],
      "new_token": "नु",
      "frequency": 366,
      "vocab_size": 299,
      "learned_vocab_size": 240,
      "compression_ratio": 1.5018358750253418,
      "example_words": []
    },
    {
      "step": 241,
      "pair": [
        "ज़ि",
        "ला"
      ],
      "new_token": "ज़िला",
      "frequency": 363,
      "vocab_size": 300,
      "learned_vocab_size": 241,
      "compression_ratio": 1.5027861454269702,
      "example_words": []
    },
    {
      "step": 242,
      "pair": [
        "मु",
        "ख"
      ],
      "new_token": "मुख",
      "frequency": 363,
      "vocab_size": 301,
      "learned_vocab_size": 242,
      "compression_ratio": 1.503679479331121,
      "example_words": []
    },
    {
      "step": 243,
      "pair": [
        "गा",
        "ँव"
      ],
      "new_token": "गाँव",
      "frequency": 362,
      "vocab_size": 302,
      "learned_vocab_size": 243,
      "compression_ratio": 1.5045593244108018,
      "example_words": []
    },
    {
      "step": 244,
      "pair": [
        "अध",
        "िक"
      ],
      "new_token": "अधिक",
      "frequency": 361,
      "vocab_size": 303,
      "learned_vocab_size": 244,
      "compression_ratio": 1.5054450559021437,
      "example_words": []
    },
    {
      "step": 245,
      "pair": [
        "स्रो",
        "त"
      ],
      "new_token": "स्रोत",
      "frequency": 359,
      "vocab_size": 304,
      "learned_vocab_size": 245,
      "compression_ratio": 1.50645338825075,
      "example_words": []
    },
    {
      "step": 246,
      "pair": [
        "a",
        "m"
      ],
      "new_token": "am",
      "frequency": 357,
      "vocab_size": 305,
      "learned_vocab_size": 246,
      "compression_ratio": 1.50645338825075,
      "example_words": []
    },
    {
      "step": 247,
      "pair": [
        "इ",
        "ं"
      ],
      "new_token": "इं",
      "frequency": 356,
      "vocab_size": 306,
      "learned_vocab_size": 247,
      "compression_ratio": 1.5073218784316258,
      "example_words": []
    },
    {
      "step": 248,
      "pair": [
        "1",
        "4"
      ],
      "new_token": "14",
      "frequency": 355,
      "vocab_size": 307,
      "learned_vocab_size": 248,
      "compression_ratio": 1.5082230516909851,
      "example_words": []
    },
    {
      "step": 249,
      "pair": [
        "पुरालेख",
        "ित"
      ],
      "new_token": "पुरालेखित",
      "frequency": 348,
      "vocab_size": 308,
      "learned_vocab_size": 249,
      "compression_ratio": 1.5090887043968215,
      "example_words": []
    },
    {
      "step": 250,
      "pair": [
        "ं",
        "त"
      ],
      "new_token": "ंत",
      "frequency": 347,
      "vocab_size": 309,
      "learned_vocab_size": 250,
      "compression_ratio": 1.5090887043968215,
      "example_words": []
    },
    {
      "step": 251,
      "pair": [
        "ज",
        "्"
      ],
      "new_token": "ज्",
      "frequency": 345,
      "vocab_size": 310,
      "learned_vocab_size": 251,
      "compression_ratio": 1.5101996569912306,
      "example_words": []
    },
    {
      "step": 252,
      "pair": [
        "भा",
        "ग"
      ],
      "new_token": "भाग",
      "frequency": 344,
      "vocab_size": 311,
      "learned_vocab_size": 252,
      "compression_ratio": 1.5111458652069947,
      "example_words": []
    },
    {
      "step": 253,
      "pair": [
        "ट",
        "ि"
      ],
      "new_token": "टि",
      "frequency": 341,
      "vocab_size": 312,
      "learned_vocab_size": 253,
      "compression_ratio": 1.5120491686430024,
      "example_words": []
    },
    {
      "step": 254,
      "pair": [
        "ण",
        "ा"
      ],
      "new_token": "णा",
      "frequency": 341,
      "vocab_size": 313,
      "learned_vocab_size": 254,
      "compression_ratio": 1.5129412908872824,
      "example_words": []
    },
    {
      "step": 255,
      "pair": [
        "I",
        "n"
      ],
      "new_token": "In",
      "frequency": 340,
      "vocab_size": 314,
      "learned_vocab_size": 255,
      "compression_ratio": 1.5138172800742156,
      "example_words": []
    },
    {
      "step": 256,
      "pair": [
        "श",
        "न"
      ],
      "new_token": "शन",
      "frequency": 338,
      "vocab_size": 315,
      "learned_vocab_size": 256,
      "compression_ratio": 1.5146524990953245,
      "example_words": []
    },
    {
      "step": 257,
      "pair": [
        "ौ",
        "र"
      ],
      "new_token": "ौर",
      "frequency": 338,
      "vocab_size": 316,
      "learned_vocab_size": 257,
      "compression_ratio": 1.5154911008569545,
      "example_words": []
    },
    {
      "step": 258,
      "pair": [
        "फ",
        "ि"
      ],
      "new_token": "फि",
      "frequency": 337,
      "vocab_size": 317,
      "learned_vocab_size": 258,
      "compression_ratio": 1.516480909829407,
      "example_words": []
    },
    {
      "step": 259,
      "pair": [
        "म",
        "ै"
      ],
      "new_token": "मै",
      "frequency": 336,
      "vocab_size": 318,
      "learned_vocab_size": 259,
      "compression_ratio": 1.5173166049213134,
      "example_words": []
    },
    {
      "step": 260,
      "pair": [
        "स",
        "न्द"
      ],
      "new_token": "सन्द",
      "frequency": 334,
      "vocab_size": 319,
      "learned_vocab_size": 260,
      "compression_ratio": 1.5181482830858912,
      "example_words": []
    },
    {
      "step": 261,
      "pair": [
        "भारती",
        "य"
      ],
      "new_token": "भारतीय",
      "frequency": 332,
      "vocab_size": 320,
      "learned_vocab_size": 261,
      "compression_ratio": 1.5189759295935321,
      "example_words": []
    },
    {
      "step": 262,
      "pair": [
        "सन्द",
        "र्भ"
      ],
      "new_token": "सन्दर्भ",
      "frequency": 332,
      "vocab_size": 321,
      "learned_vocab_size": 262,
      "compression_ratio": 1.5189759295935321,
      "example_words": []
    },
    {
      "step": 263,
      "pair": [
        "-",
        "0"
      ],
      "new_token": "-0",
      "frequency": 332,
      "vocab_size": 322,
      "learned_vocab_size": 263,
      "compression_ratio": 1.5197970551503932,
      "example_words": []
    },
    {
      "step": 264,
      "pair": [
        "or",
        "t"
      ],
      "new_token": "ort",
      "frequency": 330,
      "vocab_size": 323,
      "learned_vocab_size": 264,
      "compression_ratio": 1.5206190689528774,
      "example_words": []
    },
    {
      "step": 265,
      "pair": [
        "श",
        "ी"
      ],
      "new_token": "शी",
      "frequency": 329,
      "vocab_size": 324,
      "learned_vocab_size": 265,
      "compression_ratio": 1.5214370125265895,
      "example_words": []
    },
    {
      "step": 266,
      "pair": [
        "1",
        "1"
      ],
      "new_token": "11",
      "frequency": 329,
      "vocab_size": 325,
      "learned_vocab_size": 266,
      "compression_ratio": 1.522253353904163,
      "example_words": []
    },
    {
      "step": 267,
      "pair": [
        "0",
        "0"
      ],
      "new_token": "00",
      "frequency": 328,
      "vocab_size": 326,
      "learned_vocab_size": 267,
      "compression_ratio": 1.5230308083667699,
      "example_words": []
    },
    {
      "step": 268,
      "pair": [
        "प",
        "ट"
      ],
      "new_token": "पट",
      "frequency": 328,
      "vocab_size": 327,
      "learned_vocab_size": 268,
      "compression_ratio": 1.5236797085172513,
      "example_words": []
    },
    {
      "step": 269,
      "pair": [
        "ह",
        "े"
      ],
      "new_token": "हे",
      "frequency": 327,
      "vocab_size": 328,
      "learned_vocab_size": 269,
      "compression_ratio": 1.5245133987851507,
      "example_words": []
    },
    {
      "step": 270,
      "pair": [
        "ल",
        "पुर"
      ],
      "new_token": "लपुर",
      "frequency": 326,
      "vocab_size": 329,
      "learned_vocab_size": 270,
      "compression_ratio": 1.525345509157198,
      "example_words": []
    },
    {
      "step": 271,
      "pair": [
        "ए",
        "ँ"
      ],
      "new_token": "एँ",
      "frequency": 325,
      "vocab_size": 330,
      "learned_vocab_size": 271,
      "compression_ratio": 1.5261785283907985,
      "example_words": []
    },
    {
      "step": 272,
      "pair": [
        "ू",
        "न"
      ],
      "new_token": "ून",
      "frequency": 324,
      "vocab_size": 331,
      "learned_vocab_size": 272,
      "compression_ratio": 1.5269899748717413,
      "example_words": []
    },
    {
      "step": 273,
      "pair": [
        "पुरालेखित",
        "."
      ],
      "new_token": "पुरालेखित.",
      "frequency": 324,
      "vocab_size": 332,
      "learned_vocab_size": 273,
      "compression_ratio": 1.5278848137029264,
      "example_words": []
    },
    {
      "step": 274,
      "pair": [
        "व",
        "री"
      ],
      "new_token": "वरी",
      "frequency": 324,
      "vocab_size": 333,
      "learned_vocab_size": 274,
      "compression_ratio": 1.5278848137029264,
      "example_words": []
    },
    {
      "step": 275,
      "pair": [
        "श",
        "ि"
      ],
      "new_token": "शि",
      "frequency": 323,
      "vocab_size": 334,
      "learned_vocab_size": 275,
      "compression_ratio": 1.5286955724210671,
      "example_words": []
    },
    {
      "step": 276,
      "pair": [
        "ना",
        "म"
      ],
      "new_token": "नाम",
      "frequency": 320,
      "vocab_size": 335,
      "learned_vocab_size": 276,
      "compression_ratio": 1.5299559565236633,
      "example_words": []
    },
    {
      "step": 277,
      "pair": [
        "स",
        "ो"
      ],
      "new_token": "सो",
      "frequency": 320,
      "vocab_size": 336,
      "learned_vocab_size": 277,
      "compression_ratio": 1.5309070034443168,
      "example_words": []
    },
    {
      "step": 278,
      "pair": [
        "c",
        "h"
      ],
      "new_token": "ch",
      "frequency": 316,
      "vocab_size": 337,
      "learned_vocab_size": 278,
      "compression_ratio": 1.5317285143910215,
      "example_words": []
    },
    {
      "step": 279,
      "pair": [
        "i",
        "a"
      ],
      "new_token": "ia",
      "frequency": 311,
      "vocab_size": 338,
      "learned_vocab_size": 279,
      "compression_ratio": 1.5325232285319765,
      "example_words": []
    },
    {
      "step": 280,
      "pair": [
        "न",
        "ो"
      ],
      "new_token": "नो",
      "frequency": 309,
      "vocab_size": 339,
      "learned_vocab_size": 280,
      "compression_ratio": 1.5333036548845416,
      "example_words": []
    },
    {
      "step": 281,
      "pair": [
        "चे",
        "न्न"
      ],
      "new_token": "चेन्न",
      "frequency": 309,
      "vocab_size": 340,
      "learned_vocab_size": 281,
      "compression_ratio": 1.5341252192149843,
      "example_words": []
    },
    {
      "step": 282,
      "pair": [
        "r",
        "o"
      ],
      "new_token": "ro",
      "frequency": 308,
      "vocab_size": 341,
      "learned_vocab_size": 282,
      "compression_ratio": 1.5349047543873497,
      "example_words": []
    },
    {
      "step": 283,
      "pair": [
        "ब",
        "्"
      ],
      "new_token": "ब्",
      "frequency": 308,
      "vocab_size": 342,
      "learned_vocab_size": 283,
      "compression_ratio": 1.5356825555606741,
      "example_words": []
    },
    {
      "step": 284,
      "pair": [
        "ं",
        "ध"
      ],
      "new_token": "ंध",
      "frequency": 307,
      "vocab_size": 343,
      "learned_vocab_size": 284,
      "compression_ratio": 1.5370987609593507,
      "example_words": []
    },
    {
      "step": 285,
      "pair": [
        "1",
        "8"
      ],
      "new_token": "18",
      "frequency": 307,
      "vocab_size": 344,
      "learned_vocab_size": 285,
      "compression_ratio": 1.5378762540428415,
      "example_words": []
    },
    {
      "step": 286,
      "pair": [
        "आ",
        "ई"
      ],
      "new_token": "आई",
      "frequency": 306,
      "vocab_size": 345,
      "learned_vocab_size": 286,
      "compression_ratio": 1.5386621432939847,
      "example_words": []
    },
    {
      "step": 287,
      "pair": [
        "th",
        "e"
      ],
      "new_token": "the",
      "frequency": 306,
      "vocab_size": 346,
      "learned_vocab_size": 287,
      "compression_ratio": 1.5394386801710644,
      "example_words": []
    },
    {
      "step": 288,
      "pair": [
        "जो",
        "ड़"
      ],
      "new_token": "जोड़",
      "frequency": 305,
      "vocab_size": 347,
      "learned_vocab_size": 288,
      "compression_ratio": 1.5402185428059418,
      "example_words": []
    },
    {
      "step": 289,
      "pair": [
        "ड",
        "े"
      ],
      "new_token": "डे",
      "frequency": 304,
      "vocab_size": 348,
      "learned_vocab_size": 289,
      "compression_ratio": 1.5409941077316005,
      "example_words": []
    },
    {
      "step": 290,
      "pair": [
        "p",
        "ort"
      ],
      "new_token": "port",
      "frequency": 304,
      "vocab_size": 349,
      "learned_vocab_size": 290,
      "compression_ratio": 1.5418137488912051,
      "example_words": []
    },
    {
      "step": 291,
      "pair": [
        "i",
        "l"
      ],
      "new_token": "il",
      "frequency": 304,
      "vocab_size": 350,
      "learned_vocab_size": 291,
      "compression_ratio": 1.5425883721737348,
      "example_words": []
    },
    {
      "step": 292,
      "pair": [
        "7",
        "8"
      ],
      "new_token": "78",
      "frequency": 304,
      "vocab_size": 351,
      "learned_vocab_size": 292,
      "compression_ratio": 1.543363774205123,
      "example_words": []
    },
    {
      "step": 293,
      "pair": [
        "ड",
        "ी"
      ],
      "new_token": "डी",
      "frequency": 303,
      "vocab_size": 352,
      "learned_vocab_size": 293,
      "compression_ratio": 1.5441399561603044,
      "example_words": []
    },
    {
      "step": 294,
      "pair": [
        "चेन्न",
        "ई"
      ],
      "new_token": "चेन्नई",
      "frequency": 302,
      "vocab_size": 353,
      "learned_vocab_size": 294,
      "compression_ratio": 1.5449603908937126,
      "example_words": []
    },
    {
      "step": 295,
      "pair": [
        "२",
        "०"
      ],
      "new_token": "२०",
      "frequency": 301,
      "vocab_size": 354,
      "learned_vocab_size": 295,
      "compression_ratio": 1.545733060418778,
      "example_words": []
    },
    {
      "step": 296,
      "pair": [
        "उत्त",
        "र"
      ],
      "new_token": "उत्तर",
      "frequency": 299,
      "vocab_size": 355,
      "learned_vocab_size": 296,
      "compression_ratio": 1.5465039408434416,
      "example_words": []
    },
    {
      "step": 297,
      "pair": [
        "स",
        "भा"
      ],
      "new_token": "सभा",
      "frequency": 299,
      "vocab_size": 356,
      "learned_vocab_size": 297,
      "compression_ratio": 1.5450140945785116,
      "example_words": []
    },
    {
      "step": 298,
      "pair": [
        "अ",
        "प"
      ],
      "new_token": "अप",
      "frequency": 297,
      "vocab_size": 357,
      "learned_vocab_size": 298,
      "compression_ratio": 1.5457791379750063,
      "example_words": []
    },
    {
      "step": 299,
      "pair": [
        "विश्व",
        "विद्यालय"
      ],
      "new_token": "विश्वविद्यालय",
      "frequency": 292,
      "vocab_size": 358,
      "learned_vocab_size": 299,
      "compression_ratio": 1.5468806968465572,
      "example_words": []
    },
    {
      "step": 300,
      "pair": [
        "at",
        "ion"
      ],
      "new_token": "ation",
      "frequency": 292,
      "vocab_size": 359,
      "learned_vocab_size": 300,
      "compression_ratio": 1.5468806968465572,
      "example_words": []
    },
    {
      "step": 301,
      "pair": [
        "क",
        "ै"
      ],
      "new_token": "कै",
      "frequency": 292,
      "vocab_size": 360,
      "learned_vocab_size": 301,
      "compression_ratio": 1.5476296276645134,
      "example_words": [
        "कैमुर",
        "कैपिटल",
        "कैफियत"
      ]
    },
    {
      "step": 302,
      "pair": [
        "e",
        "m"
      ],
      "new_token": "em",
      "frequency": 291,
      "vocab_size": 361,
      "learned_vocab_size": 302,
      "compression_ratio": 1.548381852595887,
      "example_words": []
    },
    {
      "step": 303,
      "pair": [
        "व",
        "र"
      ],
      "new_token": "वर",
      "frequency": 291,
      "vocab_size": 362,
      "learned_vocab_size": 303,
      "compression_ratio": 1.5491399512716506,
      "example_words": []
    },
    {
      "step": 304,
      "pair": [
        "ड़",
        "िया"
      ],
      "new_token": "ड़िया",
      "frequency": 289,
      "vocab_size": 363,
      "learned_vocab_size": 304,
      "compression_ratio": 1.5476065333490294,
      "example_words": []
    },
    {
      "step": 305,
      "pair": [
        "प",
        "े"
      ],
      "new_token": "पे",
      "frequency": 288,
      "vocab_size": 364,
      "learned_vocab_size": 305,
      "compression_ratio": 1.5483561673376696,
      "example_words": []
    },
    {
      "step": 306,
      "pair": [
        "o",
        "l"
      ],
      "new_token": "ol",
      "frequency": 288,
      "vocab_size": 365,
      "learned_vocab_size": 306,
      "compression_ratio": 1.5491322380573818,
      "example_words": []
    },
    {
      "step": 307,
      "pair": [
        "ड़",
        "ी"
      ],
      "new_token": "ड़ी",
      "frequency": 287,
      "vocab_size": 366,
      "learned_vocab_size": 307,
      "compression_ratio": 1.5498730570421377,
      "example_words": []
    },
    {
      "step": 308,
      "pair": [
        "है",
        ","
      ],
      "new_token": "है,",
      "frequency": 287,
      "vocab_size": 367,
      "learned_vocab_size": 308,
      "compression_ratio": 1.5506120089309448,
      "example_words": []
    },
    {
      "step": 309,
      "pair": [
        "e",
        "t"
      ],
      "new_token": "et",
      "frequency": 287,
      "vocab_size": 368,
      "learned_vocab_size": 309,
      "compression_ratio": 1.551351665794088,
      "example_words": []
    },
    {
      "step": 310,
      "pair": [
        "ज्",
        "ञ"
      ],
      "new_token": "ज्ञ",
      "frequency": 286,
      "vocab_size": 369,
      "learned_vocab_size": 310,
      "compression_ratio": 1.5520868668728591,
      "example_words": []
    },
    {
      "step": 311,
      "pair": [
        "क्",
        "त"
      ],
      "new_token": "क्त",
      "frequency": 284,
      "vocab_size": 370,
      "learned_vocab_size": 311,
      "compression_ratio": 1.5528253484479966,
      "example_words": []
    },
    {
      "step": 312,
      "pair": [
        "्री",
        "य"
      ],
      "new_token": "्रीय",
      "frequency": 284,
      "vocab_size": 371,
      "learned_vocab_size": 312,
      "compression_ratio": 1.5536550410887306,
      "example_words": []
    },
    {
      "step": 313,
      "pair": [
        "19",
        "9"
      ],
      "new_token": "199",
      "frequency": 283,
      "vocab_size": 372,
      "learned_vocab_size": 313,
      "compression_ratio": 1.5536550410887306,
      "example_words": []
    },
    {
      "step": 314,
      "pair": [
        "अ",
        "ंग"
      ],
      "new_token": "अंग",
      "frequency": 282,
      "vocab_size": 373,
      "learned_vocab_size": 314,
      "compression_ratio": 1.5543872504121634,
      "example_words": []
    },
    {
      "step": 315,
      "pair": [
        "च",
        "्"
      ],
      "new_token": "च्",
      "frequency": 282,
      "vocab_size": 374,
      "learned_vocab_size": 315,
      "compression_ratio": 1.5551356962084368,
      "example_words": []
    },
    {
      "step": 316,
      "pair": [
        "ष्ट",
        "्रीय"
      ],
      "new_token": "ष्ट्रीय",
      "frequency": 282,
      "vocab_size": 375,
      "learned_vocab_size": 316,
      "compression_ratio": 1.5558693021379588,
      "example_words": []
    },
    {
      "step": 317,
      "pair": [
        "द",
        "ु"
      ],
      "new_token": "दु",
      "frequency": 280,
      "vocab_size": 376,
      "learned_vocab_size": 317,
      "compression_ratio": 1.5558693021379588,
      "example_words": []
    },
    {
      "step": 318,
      "pair": [
        "प",
        "ि"
      ],
      "new_token": "पि",
      "frequency": 279,
      "vocab_size": 377,
      "learned_vocab_size": 318,
      "compression_ratio": 1.5566944629753168,
      "example_words": []
    },
    {
      "step": 319,
      "pair": [
        "ही",
        "ं"
      ],
      "new_token": "हीं",
      "frequency": 278,
      "vocab_size": 378,
      "learned_vocab_size": 319,
      "compression_ratio": 1.5575880758807588,
      "example_words": []
    },
    {
      "step": 320,
      "pair": [
        "च",
        "ी"
      ],
      "new_token": "ची",
      "frequency": 278,
      "vocab_size": 379,
      "learned_vocab_size": 320,
      "compression_ratio": 1.558310989719155,
      "example_words": []
    },
    {
      "step": 321,
      "pair": [
        "6",
        "3"
      ],
      "new_token": "63",
      "frequency": 277,
      "vocab_size": 380,
      "learned_vocab_size": 321,
      "compression_ratio": 1.55903457491231,
      "example_words": []
    },
    {
      "step": 322,
      "pair": [
        "a",
        "d"
      ],
      "new_token": "ad",
      "frequency": 274,
      "vocab_size": 381,
      "learned_vocab_size": 322,
      "compression_ratio": 1.559756225947198,
      "example_words": []
    },
    {
      "step": 323,
      "pair": [
        "वि",
        "ध"
      ],
      "new_token": "विध",
      "frequency": 273,
      "vocab_size": 382,
      "learned_vocab_size": 323,
      "compression_ratio": 1.5604707188342704,
      "example_words": []
    },
    {
      "step": 324,
      "pair": [
        "इ",
        "न"
      ],
      "new_token": "इन",
      "frequency": 273,
      "vocab_size": 383,
      "learned_vocab_size": 324,
      "compression_ratio": 1.5611832553907499,
      "example_words": []
    },
    {
      "step": 325,
      "pair": [
        "u",
        "s"
      ],
      "new_token": "us",
      "frequency": 272,
      "vocab_size": 384,
      "learned_vocab_size": 325,
      "compression_ratio": 1.561885988617938,
      "example_words": []
    },
    {
      "step": 326,
      "pair": [
        "य",
        "े"
      ],
      "new_token": "ये",
      "frequency": 271,
      "vocab_size": 385,
      "learned_vocab_size": 326,
      "compression_ratio": 1.5625972025747696,
      "example_words": []
    },
    {
      "step": 327,
      "pair": [
        "o",
        "m"
      ],
      "new_token": "om",
      "frequency": 268,
      "vocab_size": 386,
      "learned_vocab_size": 327,
      "compression_ratio": 1.5633771441300959,
      "example_words": []
    },
    {
      "step": 328,
      "pair": [
        "ड",
        "ि"
      ],
      "new_token": "डि",
      "frequency": 267,
      "vocab_size": 387,
      "learned_vocab_size": 328,
      "compression_ratio": 1.5640792333381928,
      "example_words": []
    },
    {
      "step": 329,
      "pair": [
        "ल",
        "ै"
      ],
      "new_token": "लै",
      "frequency": 266,
      "vocab_size": 388,
      "learned_vocab_size": 329,
      "compression_ratio": 1.5648895148040103,
      "example_words": []
    },
    {
      "step": 330,
      "pair": [
        "आध",
        "िकारिक"
      ],
      "new_token": "आधिकारिक",
      "frequency": 265,
      "vocab_size": 389,
      "learned_vocab_size": 330,
      "compression_ratio": 1.5655877113825365,
      "example_words": []
    },
    {
      "step": 331,
      "pair": [
        "en",
        "t"
      ],
      "new_token": "ent",
      "frequency": 264,
      "vocab_size": 390,
      "learned_vocab_size": 331,
      "compression_ratio": 1.5655877113825365,
      "example_words": []
    },
    {
      "step": 332,
      "pair": [
        "ब",
        "ु"
      ],
      "new_token": "बु",
      "frequency": 263,
      "vocab_size": 391,
      "learned_vocab_size": 332,
      "compression_ratio": 1.566281274646351,
      "example_words": []
    },
    {
      "step": 333,
      "pair": [
        "न्",
        "ध"
      ],
      "new_token": "न्ध",
      "frequency": 262,
      "vocab_size": 392,
      "learned_vocab_size": 333,
      "compression_ratio": 1.566972822063334,
      "example_words": []
    },
    {
      "step": 334,
      "pair": [
        "न",
        "पुर"
      ],
      "new_token": "नपुर",
      "frequency": 262,
      "vocab_size": 393,
      "learned_vocab_size": 334,
      "compression_ratio": 1.5676623474777673,
      "example_words": []
    },
    {
      "step": 335,
      "pair": [
        "त",
        "ु"
      ],
      "new_token": "तु",
      "frequency": 261,
      "vocab_size": 394,
      "learned_vocab_size": 335,
      "compression_ratio": 1.5689166270260821,
      "example_words": []
    },
    {
      "step": 336,
      "pair": [
        "द्",
        "वारा"
      ],
      "new_token": "द्वारा",
      "frequency": 260,
      "vocab_size": 395,
      "learned_vocab_size": 336,
      "compression_ratio": 1.5696263411024787,
      "example_words": []
    },
    {
      "step": 337,
      "pair": [
        "ज",
        "ु"
      ],
      "new_token": "जु",
      "frequency": 260,
      "vocab_size": 396,
      "learned_vocab_size": 337,
      "compression_ratio": 1.5696263411024787,
      "example_words": []
    },
    {
      "step": 338,
      "pair": [
        "ज़",
        "ी"
      ],
      "new_token": "ज़ी",
      "frequency": 259,
      "vocab_size": 397,
      "learned_vocab_size": 338,
      "compression_ratio": 1.5703129205921937,
      "example_words": []
    },
    {
      "step": 339,
      "pair": [
        "न",
        "हीं"
      ],
      "new_token": "नहीं",
      "frequency": 259,
      "vocab_size": 398,
      "learned_vocab_size": 339,
      "compression_ratio": 1.5709974568326375,
      "example_words": []
    },
    {
      "step": 340,
      "pair": [
        "6",
        "0"
      ],
      "new_token": "60",
      "frequency": 259,
      "vocab_size": 399,
      "learned_vocab_size": 340,
      "compression_ratio": 1.57168259014417,
      "example_words": []
    },
    {
      "step": 341,
      "pair": [
        "उ",
        "न"
      ],
      "new_token": "उन",
      "frequency": 258,
      "vocab_size": 400,
      "learned_vocab_size": 341,
      "compression_ratio": 1.5723762676459687,
      "example_words": []
    },
    {
      "step": 342,
      "pair": [
        "यो",
        "ग"
      ],
      "new_token": "योग",
      "frequency": 257,
      "vocab_size": 401,
      "learned_vocab_size": 342,
      "compression_ratio": 1.5730652554941351,
      "example_words": []
    },
    {
      "step": 343,
      "pair": [
        "अंग",
        "्रे"
      ],
      "new_token": "अंग्रे",
      "frequency": 256,
      "vocab_size": 402,
      "learned_vocab_size": 343,
      "compression_ratio": 1.574168892846542,
      "example_words": []
    },
    {
      "step": 344,
      "pair": [
        "थ",
        "ी"
      ],
      "new_token": "थी",
      "frequency": 256,
      "vocab_size": 403,
      "learned_vocab_size": 344,
      "compression_ratio": 1.574168892846542,
      "example_words": []
    },
    {
      "step": 345,
      "pair": [
        "मद",
        "द"
      ],
      "new_token": "मदद",
      "frequency": 254,
      "vocab_size": 404,
      "learned_vocab_size": 345,
      "compression_ratio": 1.5748488243392813,
      "example_words": []
    },
    {
      "step": 346,
      "pair": [
        "ए",
        "स"
      ],
      "new_token": "एस",
      "frequency": 253,
      "vocab_size": 405,
      "learned_vocab_size": 346,
      "compression_ratio": 1.575524024617088,
      "example_words": []
    },
    {
      "step": 347,
      "pair": [
        "A",
        "ir"
      ],
      "new_token": "Air",
      "frequency": 253,
      "vocab_size": 406,
      "learned_vocab_size": 347,
      "compression_ratio": 1.5761864957741247,
      "example_words": []
    },
    {
      "step": 348,
      "pair": [
        "रा",
        "म"
      ],
      "new_token": "राम",
      "frequency": 253,
      "vocab_size": 407,
      "learned_vocab_size": 348,
      "compression_ratio": 1.5768601798855273,
      "example_words": []
    },
    {
      "step": 349,
      "pair": [
        "नि",
        "गम"
      ],
      "new_token": "निगम",
      "frequency": 251,
      "vocab_size": 408,
      "learned_vocab_size": 349,
      "compression_ratio": 1.5776037643686418,
      "example_words": []
    },
    {
      "step": 350,
      "pair": [
        "1",
        "5"
      ],
      "new_token": "15",
      "frequency": 250,
      "vocab_size": 409,
      "learned_vocab_size": 350,
      "compression_ratio": 1.5783266991555374,
      "example_words": []
    },
    {
      "step": 351,
      "pair": [
        "व",
        "न"
      ],
      "new_token": "वन",
      "frequency": 247,
      "vocab_size": 410,
      "learned_vocab_size": 351,
      "compression_ratio": 1.5790022144066693,
      "example_words": []
    },
    {
      "step": 352,
      "pair": [
        "दे",
        "वा"
      ],
      "new_token": "देवा",
      "frequency": 246,
      "vocab_size": 411,
      "learned_vocab_size": 352,
      "compression_ratio": 1.579726431731482,
      "example_words": []
    },
    {
      "step": 353,
      "pair": [
        "श",
        "ु"
      ],
      "new_token": "शु",
      "frequency": 246,
      "vocab_size": 412,
      "learned_vocab_size": 353,
      "compression_ratio": 1.5803977941338319,
      "example_words": []
    },
    {
      "step": 354,
      "pair": [
        "Air",
        "port"
      ],
      "new_token": "Airport",
      "frequency": 245,
      "vocab_size": 413,
      "learned_vocab_size": 354,
      "compression_ratio": 1.5810563367160093,
      "example_words": []
    },
    {
      "step": 355,
      "pair": [
        "सि",
        "टी"
      ],
      "new_token": "सिटी",
      "frequency": 244,
      "vocab_size": 414,
      "learned_vocab_size": 355,
      "compression_ratio": 1.5817127480020878,
      "example_words": []
    },
    {
      "step": 356,
      "pair": [
        "य",
        "ू"
      ],
      "new_token": "यू",
      "frequency": 243,
      "vocab_size": 415,
      "learned_vocab_size": 356,
      "compression_ratio": 1.5823670219979928,
      "example_words": []
    },
    {
      "step": 357,
      "pair": [
        "जान",
        "कारी"
      ],
      "new_token": "जानकारी",
      "frequency": 243,
      "vocab_size": 416,
      "learned_vocab_size": 357,
      "compression_ratio": 1.5838841215190045,
      "example_words": []
    },
    {
      "step": 358,
      "pair": [
        "थ",
        "े"
      ],
      "new_token": "थे",
      "frequency": 242,
      "vocab_size": 417,
      "learned_vocab_size": 358,
      "compression_ratio": 1.5838841215190045,
      "example_words": []
    },
    {
      "step": 359,
      "pair": [
        "अ",
        "नु"
      ],
      "new_token": "अनु",
      "frequency": 242,
      "vocab_size": 418,
      "learned_vocab_size": 359,
      "compression_ratio": 1.5845375035649776,
      "example_words": []
    },
    {
      "step": 360,
      "pair": [
        "प",
        "ो"
      ],
      "new_token": "पो",
      "frequency": 241,
      "vocab_size": 419,
      "learned_vocab_size": 360,
      "compression_ratio": 1.5851887327579472,
      "example_words": []
    },
    {
      "step": 361,
      "pair": [
        "ज",
        "य"
      ],
      "new_token": "जय",
      "frequency": 241,
      "vocab_size": 420,
      "learned_vocab_size": 361,
      "compression_ratio": 1.5858566637330225,
      "example_words": []
    },
    {
      "step": 362,
      "pair": [
        "द्",
        "वार"
      ],
      "new_token": "द्वार",
      "frequency": 240,
      "vocab_size": 421,
      "learned_vocab_size": 362,
      "compression_ratio": 1.5865089779240293,
      "example_words": []
    },
    {
      "step": 363,
      "pair": [
        "इं",
        "टर"
      ],
      "new_token": "इंटर",
      "frequency": 240,
      "vocab_size": 422,
      "learned_vocab_size": 363,
      "compression_ratio": 1.5865089779240293,
      "example_words": []
    },
    {
      "step": 364,
      "pair": [
        "ओ",
        "ं"
      ],
      "new_token": "ओं",
      "frequency": 238,
      "vocab_size": 423,
      "learned_vocab_size": 364,
      "compression_ratio": 1.587159130134622,
      "example_words": []
    },
    {
      "step": 365,
      "pair": [
        "E",
        "﻿"
      ],
      "new_token": "E﻿",
      "frequency": 238,
      "vocab_size": 424,
      "learned_vocab_size": 365,
      "compression_ratio": 1.5878017123328452,
      "example_words": []
    },
    {
      "step": 366,
      "pair": [
        "सा",
        "थ"
      ],
      "new_token": "साथ",
      "frequency": 238,
      "vocab_size": 425,
      "learned_vocab_size": 366,
      "compression_ratio": 1.5884448150574781,
      "example_words": []
    },
    {
      "step": 367,
      "pair": [
        "जि",
        "ले"
      ],
      "new_token": "जिले",
      "frequency": 237,
      "vocab_size": 426,
      "learned_vocab_size": 367,
      "compression_ratio": 1.5890884389412592,
      "example_words": []
    },
    {
      "step": 368,
      "pair": [
        "i",
        "v"
      ],
      "new_token": "iv",
      "frequency": 237,
      "vocab_size": 427,
      "learned_vocab_size": 368,
      "compression_ratio": 1.5897840305218696,
      "example_words": []
    },
    {
      "step": 369,
      "pair": [
        "लो",
        "क"
      ],
      "new_token": "लोक",
      "frequency": 236,
      "vocab_size": 428,
      "learned_vocab_size": 369,
      "compression_ratio": 1.5904260304012896,
      "example_words": []
    },
    {
      "step": 370,
      "pair": [
        "1",
        "7"
      ],
      "new_token": "17",
      "frequency": 235,
      "vocab_size": 429,
      "learned_vocab_size": 370,
      "compression_ratio": 1.5910712611545312,
      "example_words": []
    },
    {
      "step": 371,
      "pair": [
        "सन्दर्भ",
        "[संपादित"
      ],
      "new_token": "सन्दर्भ[संपादित",
      "frequency": 234,
      "vocab_size": 430,
      "learned_vocab_size": 371,
      "compression_ratio": 1.5917170156563616,
      "example_words": []
    },
    {
      "step": 372,
      "pair": [
        "ति",
        "हा"
      ],
      "new_token": "तिहा",
      "frequency": 233,
      "vocab_size": 431,
      "learned_vocab_size": 372,
      "compression_ratio": 1.5917170156563616,
      "example_words": []
    },
    {
      "step": 373,
      "pair": [
        "1",
        "6"
      ],
      "new_token": "16",
      "frequency": 230,
      "vocab_size": 432,
      "learned_vocab_size": 373,
      "compression_ratio": 1.5924013272939752,
      "example_words": []
    },
    {
      "step": 374,
      "pair": [
        "मि",
        "ल"
      ],
      "new_token": "मिल",
      "frequency": 230,
      "vocab_size": 433,
      "learned_vocab_size": 374,
      "compression_ratio": 1.5930400054614964,
      "example_words": []
    },
    {
      "step": 375,
      "pair": [
        "सर",
        "कार"
      ],
      "new_token": "सरकार",
      "frequency": 229,
      "vocab_size": 434,
      "learned_vocab_size": 375,
      "compression_ratio": 1.5937336190484321,
      "example_words": []
    },
    {
      "step": 376,
      "pair": [
        "व",
        "त"
      ],
      "new_token": "वत",
      "frequency": 229,
      "vocab_size": 435,
      "learned_vocab_size": 376,
      "compression_ratio": 1.5937336190484321,
      "example_words": []
    },
    {
      "step": 377,
      "pair": [
        "देवा",
        "सं"
      ],
      "new_token": "देवासं",
      "frequency": 227,
      "vocab_size": 436,
      "learned_vocab_size": 377,
      "compression_ratio": 1.5943951542647867,
      "example_words": []
    },
    {
      "step": 378,
      "pair": [
        "ड",
        "ा"
      ],
      "new_token": "डा",
      "frequency": 227,
      "vocab_size": 437,
      "learned_vocab_size": 378,
      "compression_ratio": 1.5950436102149068,
      "example_words": []
    },
    {
      "step": 379,
      "pair": [
        "जा",
        "ता"
      ],
      "new_token": "जाता",
      "frequency": 227,
      "vocab_size": 438,
      "learned_vocab_size": 379,
      "compression_ratio": 1.5956925938462696,
      "example_words": []
    },
    {
      "step": 380,
      "pair": [
        "देशा",
        "ंक"
      ],
      "new_token": "देशांक",
      "frequency": 226,
      "vocab_size": 439,
      "learned_vocab_size": 380,
      "compression_ratio": 1.5963120746888677,
      "example_words": []
    },
    {
      "step": 381,
      "pair": [
        "जोड़",
        "कर"
      ],
      "new_token": "जोड़कर",
      "frequency": 226,
      "vocab_size": 440,
      "learned_vocab_size": 381,
      "compression_ratio": 1.5963120746888677,
      "example_words": []
    },
    {
      "step": 382,
      "pair": [
        "1",
        "3"
      ],
      "new_token": "13",
      "frequency": 225,
      "vocab_size": 441,
      "learned_vocab_size": 382,
      "compression_ratio": 1.5969293045425694,
      "example_words": []
    },
    {
      "step": 383,
      "pair": [
        "च",
        "ल"
      ],
      "new_token": "चल",
      "frequency": 225,
      "vocab_size": 442,
      "learned_vocab_size": 383,
      "compression_ratio": 1.5975470118969581,
      "example_words": []
    },
    {
      "step": 384,
      "pair": [
        "निर्",
        "देशांक"
      ],
      "new_token": "निर्देशांक",
      "frequency": 224,
      "vocab_size": 443,
      "learned_vocab_size": 384,
      "compression_ratio": 1.5982527666525688,
      "example_words": []
    },
    {
      "step": 385,
      "pair": [
        "5",
        "0"
      ],
      "new_token": "50",
      "frequency": 224,
      "vocab_size": 444,
      "learned_vocab_size": 385,
      "compression_ratio": 1.5982527666525688,
      "example_words": []
    },
    {
      "step": 386,
      "pair": [
        "In",
        "d"
      ],
      "new_token": "Ind",
      "frequency": 224,
      "vocab_size": 445,
      "learned_vocab_size": 386,
      "compression_ratio": 1.5988797149611156,
      "example_words": []
    },
    {
      "step": 387,
      "pair": [
        "c",
        "t"
      ],
      "new_token": "ct",
      "frequency": 222,
      "vocab_size": 446,
      "learned_vocab_size": 387,
      "compression_ratio": 1.5994934505000378,
      "example_words": []
    },
    {
      "step": 388,
      "pair": [
        "ट",
        "न"
      ],
      "new_token": "टन",
      "frequency": 221,
      "vocab_size": 447,
      "learned_vocab_size": 388,
      "compression_ratio": 1.6001021713118042,
      "example_words": []
    },
    {
      "step": 389,
      "pair": [
        "u",
        "l"
      ],
      "new_token": "ul",
      "frequency": 221,
      "vocab_size": 448,
      "learned_vocab_size": 389,
      "compression_ratio": 1.6007058654053925,
      "example_words": []
    },
    {
      "step": 390,
      "pair": [
        "म",
        "स्"
      ],
      "new_token": "मस्",
      "frequency": 221,
      "vocab_size": 449,
      "learned_vocab_size": 390,
      "compression_ratio": 1.6013127623766283,
      "example_words": []
    },
    {
      "step": 391,
      "pair": [
        "4",
        "0"
      ],
      "new_token": "40",
      "frequency": 220,
      "vocab_size": 450,
      "learned_vocab_size": 391,
      "compression_ratio": 1.6019448634974247,
      "example_words": []
    },
    {
      "step": 392,
      "pair": [
        "कर",
        "ने"
      ],
      "new_token": "करने",
      "frequency": 219,
      "vocab_size": 451,
      "learned_vocab_size": 392,
      "compression_ratio": 1.6025637063515774,
      "example_words": []
    },
    {
      "step": 393,
      "pair": [
        "कु",
        "ल"
      ],
      "new_token": "कुल",
      "frequency": 218,
      "vocab_size": 452,
      "learned_vocab_size": 393,
      "compression_ratio": 1.6031665060741749,
      "example_words": []
    },
    {
      "step": 394,
      "pair": [
        "ब",
        "ो"
      ],
      "new_token": "बो",
      "frequency": 218,
      "vocab_size": 453,
      "learned_vocab_size": 394,
      "compression_ratio": 1.60377251507305,
      "example_words": []
    },
    {
      "step": 395,
      "pair": [
        "जि",
        "द"
      ],
      "new_token": "जिद",
      "frequency": 217,
      "vocab_size": 454,
      "learned_vocab_size": 395,
      "compression_ratio": 1.6043762246897453,
      "example_words": []
    },
    {
      "step": 396,
      "pair": [
        "अंग्रे",
        "ज़ी"
      ],
      "new_token": "अंग्रेज़ी",
      "frequency": 216,
      "vocab_size": 455,
      "learned_vocab_size": 396,
      "compression_ratio": 1.6049831487722677,
      "example_words": []
    },
    {
      "step": 397,
      "pair": [
        "च",
        "क"
      ],
      "new_token": "चक",
      "frequency": 216,
      "vocab_size": 456,
      "learned_vocab_size": 397,
      "compression_ratio": 1.6049831487722677,
      "example_words": []
    },
    {
      "step": 398,
      "pair": [
        "प",
        "ं"
      ],
      "new_token": "पं",
      "frequency": 215,
      "vocab_size": 457,
      "learned_vocab_size": 398,
      "compression_ratio": 1.605736925133368,
      "example_words": []
    },
    {
      "step": 399,
      "pair": [
        "म",
        "ध"
      ],
      "new_token": "मध",
      "frequency": 214,
      "vocab_size": 458,
      "learned_vocab_size": 399,
      "compression_ratio": 1.6063780537126433,
      "example_words": []
    },
    {
      "step": 400,
      "pair": [
        "ट",
        "े"
      ],
      "new_token": "टे",
      "frequency": 213,
      "vocab_size": 459,
      "learned_vocab_size": 400,
      "compression_ratio": 1.6069726602851044,
      "example_words": []
    },
    {
      "step": 401,
      "pair": [
        "2",
        "2"
      ],
      "new_token": "22",
      "frequency": 213,
      "vocab_size": 460,
      "learned_vocab_size": 401,
      "compression_ratio": 1.6076701550841561,
      "example_words": [
        "Code226004वाहन",
        "22",
        "00722"
      ]
    },
    {
      "step": 402,
      "pair": [
        "प",
        "ह"
      ],
      "new_token": "पह",
      "frequency": 211,
      "vocab_size": 461,
      "learned_vocab_size": 402,
      "compression_ratio": 1.6082601766099505,
      "example_words": []
    },
    {
      "step": 403,
      "pair": [
        "य",
        "र"
      ],
      "new_token": "यर",
      "frequency": 211,
      "vocab_size": 462,
      "learned_vocab_size": 403,
      "compression_ratio": 1.6088561776061776,
      "example_words": []
    },
    {
      "step": 404,
      "pair": [
        "o",
        "o"
      ],
      "new_token": "oo",
      "frequency": 210,
      "vocab_size": 463,
      "learned_vocab_size": 404,
      "compression_ratio": 1.6094526205071171,
      "example_words": []
    },
    {
      "step": 405,
      "pair": [
        "पूर्",
        "व"
      ],
      "new_token": "पूर्व",
      "frequency": 210,
      "vocab_size": 464,
      "learned_vocab_size": 405,
      "compression_ratio": 1.6100356197228043,
      "example_words": []
    },
    {
      "step": 406,
      "pair": [
        "T",
        "h"
      ],
      "new_token": "Th",
      "frequency": 210,
      "vocab_size": 465,
      "learned_vocab_size": 406,
      "compression_ratio": 1.6106245998864583,
      "example_words": []
    },
    {
      "step": 407,
      "pair": [
        "द",
        "र"
      ],
      "new_token": "दर",
      "frequency": 209,
      "vocab_size": 466,
      "learned_vocab_size": 407,
      "compression_ratio": 1.6112084486279439,
      "example_words": []
    },
    {
      "step": 408,
      "pair": [
        "बि",
        "हार"
      ],
      "new_token": "बिहार",
      "frequency": 209,
      "vocab_size": 467,
      "learned_vocab_size": 408,
      "compression_ratio": 1.6116201773242513,
      "example_words": []
    },
    {
      "step": 409,
      "pair": [
        "जन",
        "वरी"
      ],
      "new_token": "जनवरी",
      "frequency": 208,
      "vocab_size": 468,
      "learned_vocab_size": 409,
      "compression_ratio": 1.6116229599906071,
      "example_words": []
    },
    {
      "step": 410,
      "pair": [
        "ए",
        "वं"
      ],
      "new_token": "एवं",
      "frequency": 207,
      "vocab_size": 469,
      "learned_vocab_size": 410,
      "compression_ratio": 1.6116229599906071,
      "example_words": []
    },
    {
      "step": 411,
      "pair": [
        "ड़िया",
        "ँ"
      ],
      "new_token": "ड़ियाँ",
      "frequency": 206,
      "vocab_size": 470,
      "learned_vocab_size": 411,
      "compression_ratio": 1.6121991788682062,
      "example_words": []
    },
    {
      "step": 412,
      "pair": [
        "फि",
        "ल्"
      ],
      "new_token": "फिल्",
      "frequency": 206,
      "vocab_size": 471,
      "learned_vocab_size": 412,
      "compression_ratio": 1.6127730232863529,
      "example_words": []
    },
    {
      "step": 413,
      "pair": [
        "श",
        "े"
      ],
      "new_token": "शे",
      "frequency": 206,
      "vocab_size": 472,
      "learned_vocab_size": 413,
      "compression_ratio": 1.6133500649907353,
      "example_words": []
    },
    {
      "step": 414,
      "pair": [
        "मस्",
        "जिद"
      ],
      "new_token": "मस्जिद",
      "frequency": 206,
      "vocab_size": 473,
      "learned_vocab_size": 414,
      "compression_ratio": 1.6139275197678862,
      "example_words": []
    },
    {
      "step": 415,
      "pair": [
        "म",
        "हा"
      ],
      "new_token": "महा",
      "frequency": 204,
      "vocab_size": 474,
      "learned_vocab_size": 415,
      "compression_ratio": 1.6145109733484626,
      "example_words": []
    },
    {
      "step": 416,
      "pair": [
        "त",
        "क"
      ],
      "new_token": "तक",
      "frequency": 204,
      "vocab_size": 475,
      "learned_vocab_size": 416,
      "compression_ratio": 1.615639994184074,
      "example_words": []
    },
    {
      "step": 417,
      "pair": [
        "क",
        "ड़ियाँ"
      ],
      "new_token": "कड़ियाँ",
      "frequency": 203,
      "vocab_size": 476,
      "learned_vocab_size": 417,
      "compression_ratio": 1.616303050977771,
      "example_words": []
    },
    {
      "step": 418,
      "pair": [
        "ल्",
        "ली"
      ],
      "new_token": "ल्ली",
      "frequency": 201,
      "vocab_size": 477,
      "learned_vocab_size": 418,
      "compression_ratio": 1.6168714185738735,
      "example_words": []
    },
    {
      "step": 419,
      "pair": [
        "r",
        "a"
      ],
      "new_token": "ra",
      "frequency": 201,
      "vocab_size": 478,
      "learned_vocab_size": 419,
      "compression_ratio": 1.6174345804676278,
      "example_words": []
    },
    {
      "step": 420,
      "pair": [
        "घ",
        "ा"
      ],
      "new_token": "घा",
      "frequency": 200,
      "vocab_size": 479,
      "learned_vocab_size": 420,
      "compression_ratio": 1.6179981348005312,
      "example_words": []
    },
    {
      "step": 421,
      "pair": [
        "ख",
        "े"
      ],
      "new_token": "खे",
      "frequency": 200,
      "vocab_size": 480,
      "learned_vocab_size": 421,
      "compression_ratio": 1.6185620819829334,
      "example_words": []
    },
    {
      "step": 422,
      "pair": [
        "सं",
        "स्"
      ],
      "new_token": "संस्",
      "frequency": 199,
      "vocab_size": 481,
      "learned_vocab_size": 422,
      "compression_ratio": 1.6191236137877918,
      "example_words": []
    },
    {
      "step": 423,
      "pair": [
        "न्",
        "त"
      ],
      "new_token": "न्त",
      "frequency": 199,
      "vocab_size": 482,
      "learned_vocab_size": 423,
      "compression_ratio": 1.6197923445490878,
      "example_words": []
    },
    {
      "step": 424,
      "pair": [
        "प",
        "श्"
      ],
      "new_token": "पश्",
      "frequency": 199,
      "vocab_size": 483,
      "learned_vocab_size": 424,
      "compression_ratio": 1.6206698371853572,
      "example_words": []
    },
    {
      "step": 425,
      "pair": [
        "म",
        "न"
      ],
      "new_token": "मन",
      "frequency": 199,
      "vocab_size": 484,
      "learned_vocab_size": 425,
      "compression_ratio": 1.6212328326944354,
      "example_words": []
    },
    {
      "step": 426,
      "pair": [
        "सम",
        "य"
      ],
      "new_token": "समय",
      "frequency": 198,
      "vocab_size": 485,
      "learned_vocab_size": 426,
      "compression_ratio": 1.6217821300492063,
      "example_words": []
    },
    {
      "step": 427,
      "pair": [
        "का",
        "ल"
      ],
      "new_token": "काल",
      "frequency": 198,
      "vocab_size": 486,
      "learned_vocab_size": 427,
      "compression_ratio": 1.6223402591172493,
      "example_words": []
    },
    {
      "step": 428,
      "pair": [
        "7",
        "0"
      ],
      "new_token": "70",
      "frequency": 196,
      "vocab_size": 487,
      "learned_vocab_size": 428,
      "compression_ratio": 1.6229213467517023,
      "example_words": []
    },
    {
      "step": 429,
      "pair": [
        "ण",
        "ी"
      ],
      "new_token": "णी",
      "frequency": 195,
      "vocab_size": 488,
      "learned_vocab_size": 429,
      "compression_ratio": 1.6234802603429264,
      "example_words": []
    },
    {
      "step": 430,
      "pair": [
        "i",
        "d"
      ],
      "new_token": "id",
      "frequency": 195,
      "vocab_size": 489,
      "learned_vocab_size": 430,
      "compression_ratio": 1.6240310819345825,
      "example_words": []
    },
    {
      "step": 431,
      "pair": [
        "द",
        "ो"
      ],
      "new_token": "दो",
      "frequency": 195,
      "vocab_size": 490,
      "learned_vocab_size": 431,
      "compression_ratio": 1.624582277423487,
      "example_words": []
    },
    {
      "step": 432,
      "pair": [
        "रे",
        "ल"
      ],
      "new_token": "रेल",
      "frequency": 194,
      "vocab_size": 491,
      "learned_vocab_size": 432,
      "compression_ratio": 1.6251395062566707,
      "example_words": []
    },
    {
      "step": 433,
      "pair": [
        "व",
        "ै"
      ],
      "new_token": "वै",
      "frequency": 193,
      "vocab_size": 492,
      "learned_vocab_size": 433,
      "compression_ratio": 1.625702780467754,
      "example_words": []
    },
    {
      "step": 434,
      "pair": [
        "अ",
        "ल"
      ],
      "new_token": "अल",
      "frequency": 193,
      "vocab_size": 493,
      "learned_vocab_size": 434,
      "compression_ratio": 1.6262494446428728,
      "example_words": []
    },
    {
      "step": 435,
      "pair": [
        "२०",
        "१"
      ],
      "new_token": "२०१",
      "frequency": 192,
      "vocab_size": 494,
      "learned_vocab_size": 435,
      "compression_ratio": 1.6268078179302075,
      "example_words": []
    },
    {
      "step": 436,
      "pair": [
        "ज",
        "े"
      ],
      "new_token": "जे",
      "frequency": 192,
      "vocab_size": 495,
      "learned_vocab_size": 436,
      "compression_ratio": 1.6273523883912226,
      "example_words": []
    },
    {
      "step": 437,
      "pair": [
        "न",
        "दी"
      ],
      "new_token": "नदी",
      "frequency": 192,
      "vocab_size": 496,
      "learned_vocab_size": 437,
      "compression_ratio": 1.6283119456830442,
      "example_words": []
    },
    {
      "step": 438,
      "pair": [
        "विध",
        "ान"
      ],
      "new_token": "विधान",
      "frequency": 191,
      "vocab_size": 497,
      "learned_vocab_size": 438,
      "compression_ratio": 1.6288802641406703,
      "example_words": []
    },
    {
      "step": 439,
      "pair": [
        "नी",
        "य"
      ],
      "new_token": "नीय",
      "frequency": 191,
      "vocab_size": 498,
      "learned_vocab_size": 439,
[...]
